{
  "version": "1.0",
  "truncation": null,
  "padding": null,
  "added_tokens": [
    {
      "id": 0,
      "content": "<pad>",
      "single_word": false,
      "lstrip": false,
      "rstrip": false,
      "normalized": false,
      "special": true
    },
    {
      "id": 1,
      "content": "<unk>",
      "single_word": false,
      "lstrip": false,
      "rstrip": false,
      "normalized": false,
      "special": true
    },
    {
      "id": 2,
      "content": "<bos>",
      "single_word": false,
      "lstrip": false,
      "rstrip": false,
      "normalized": false,
      "special": true
    },
    {
      "id": 3,
      "content": "<eos>",
      "single_word": false,
      "lstrip": false,
      "rstrip": false,
      "normalized": false,
      "special": true
    }
  ],
  "normalizer": null,
  "pre_tokenizer": {
    "type": "ByteLevel",
    "add_prefix_space": false,
    "trim_offsets": true,
    "use_regex": true
  },
  "post_processor": null,
  "decoder": {
    "type": "ByteLevel",
    "add_prefix_space": true,
    "trim_offsets": true,
    "use_regex": true
  },
  "model": {
    "type": "BPE",
    "dropout": null,
    "unk_token": "<unk>",
    "continuing_subword_prefix": null,
    "end_of_word_suffix": null,
    "fuse_unk": false,
    "byte_fallback": false,
    "ignore_merges": false,
    "vocab": {
      "<pad>": 0,
      "<unk>": 1,
      "<bos>": 2,
      "<eos>": 3,
      "#": 4,
      "(": 5,
      ")": 6,
      ",": 7,
      "-": 8,
      ".": 9,
      "1": 10,
      "2": 11,
      "3": 12,
      "5": 13,
      "8": 14,
      ":": 15,
      ";": 16,
      "?": 17,
      "A": 18,
      "B": 19,
      "C": 20,
      "D": 21,
      "E": 22,
      "F": 23,
      "G": 24,
      "H": 25,
      "I": 26,
      "J": 27,
      "K": 28,
      "L": 29,
      "M": 30,
      "N": 31,
      "O": 32,
      "P": 33,
      "R": 34,
      "S": 35,
      "T": 36,
      "U": 37,
      "V": 38,
      "W": 39,
      "Y": 40,
      "a": 41,
      "b": 42,
      "c": 43,
      "d": 44,
      "e": 45,
      "f": 46,
      "g": 47,
      "h": 48,
      "i": 49,
      "j": 50,
      "k": 51,
      "l": 52,
      "m": 53,
      "n": 54,
      "o": 55,
      "p": 56,
      "q": 57,
      "r": 58,
      "s": 59,
      "t": 60,
      "u": 61,
      "v": 62,
      "w": 63,
      "x": 64,
      "y": 65,
      "z": 66,
      "â": 67,
      "Ċ": 68,
      "Ġ": 69,
      "Ģ": 70,
      "ĵ": 71,
      "Ļ": 72,
      "ľ": 73,
      "Ŀ": 74,
      "Ġt": 75,
      "Ġa": 76,
      "Ġth": 77,
      "in": 78,
      "Ġthe": 79,
      "on": 80,
      "ti": 81,
      "er": 82,
      "en": 83,
      "Ġs": 84,
      "es": 85,
      "Ġp": 86,
      "ro": 87,
      "Ġc": 88,
      "Ġw": 89,
      "Ġo": 90,
      "al": 91,
      "ed": 92,
      "it": 93,
      "nd": 94,
      "tion": 95,
      "ar": 96,
      "Ġof": 97,
      "uc": 98,
      "Ġin": 99,
      "an": 100,
      "el": 101,
      "at": 102,
      "ing": 103,
      "ic": 104,
      "or": 105,
      "Ġto": 106,
      "Ġand": 107,
      "Ġm": 108,
      "Ġr": 109,
      "Ġpro": 110,
      "le": 111,
      "ent": 112,
      "Ġf": 113,
      "ou": 114,
      "ec": 115,
      "Ġas": 116,
      "st": 117,
      "ation": 118,
      "Ġb": 119,
      "Ġd": 120,
      "uct": 121,
      "ev": 122,
      "ces": 123,
      "mp": 124,
      "ĠI": 125,
      "ch": 126,
      "ith": 127,
      "ce": 128,
      "ra": 129,
      "as": 130,
      "Ġcon": 131,
      "Ġwith": 132,
      "ly": 133,
      "Ġu": 134,
      "is": 135,
      "duct": 136,
      "Ġco": 137,
      "th": 138,
      "Ġg": 139,
      "ld": 140,
      "ment": 141,
      "ĠA": 142,
      "re": 143,
      "Ġproduct": 144,
      "li": 145,
      "Ġe": 146,
      "Ġthat": 147,
      "Ġcomp": 148,
      "ter": 149,
      "ear": 150,
      "il": 151,
      "pp": 152,
      "se": 153,
      "Ġsuc": 154,
      "cess": 155,
      "eri": 156,
      "Ġres": 157,
      "ould": 158,
      "Ġbe": 159,
      "fic": 160,
      "âĢ": 161,
      "Ġv": 162,
      "tic": 163,
      "ere": 164,
      "ence": 165,
      "Ġwithin": 166,
      "Ġac": 167,
      "Ġapp": 168,
      "Ġpl": 169,
      "Ġwh": 170,
      "ram": 171,
      "ur": 172,
      "rou": 173,
      "pec": 174,
      "our": 175,
      "earch": 176,
      "Ġresearch": 177,
      "Ġplan": 178,
      "ble": 179,
      "ta": 180,
      "Ġwould": 181,
      "str": 182,
      "Ġmo": 183,
      "Ġre": 184,
      "Ġprog": 185,
      "qu": 186,
      "rom": 187,
      "Ġcr": 188,
      "ge": 189,
      "im": 190,
      "ning": 191,
      "Ġint": 192,
      "Ġconstr": 193,
      "gh": 194,
      "Ġh": 195,
      "Ġit": 196,
      "ĠâĢ": 197,
      "ant": 198,
      "ate": 199,
      "Ġfor": 200,
      "Ġprogram": 201,
      "id": 202,
      "iz": 203,
      "lic": 204,
      "pon": 205,
      "Ġsour": 206,
      "for": 207,
      "ls": 208,
      "ow": 209,
      "ĠP": 210,
      "Ġle": 211,
      "ine": 212,
      "Ġsc": 213,
      "Ġwere": 214,
      "iteri": 215,
      "Ġcriteri": 216,
      "ĠâĢĵ": 217,
      "Ġcriteria": 218,
      "bi": 219,
      "oal": 220,
      "ul": 221,
      "Ġan": 222,
      "ice": 223,
      "Ġmy": 224,
      "Ġgoal": 225,
      "Ġex": 226,
      "Ġapplic": 227,
      "peci": 228,
      "bile": 229,
      "ve": 230,
      "Ġspeci": 231,
      "Ġme": 232,
      "ents": 233,
      "Ġsuccess": 234,
      "Ġmobile": 235,
      "Ġapplication": 236,
      "ac": 237,
      "oice": 238,
      "ri": 239,
      "res": 240,
      "Ġi": 241,
      "Ġn": 242,
      "ers": 243,
      "ity": 244,
      "arning": 245,
      "ely": 246,
      "Ġde": 247,
      "Ġsuch": 248,
      "Ġaction": 249,
      "rough": 250,
      "Ġconstruct": 251,
      "form": 252,
      "Ġlearning": 253,
      "gn": 254,
      "jec": 255,
      "ĠF": 256,
      "ĠM": 257,
      "ĠN": 258,
      "Ġthis": 259,
      "Ġthrough": 260,
      "eral": 261,
      "Ġfrom": 262,
      "ĠIn": 263,
      "ĠAI": 264,
      "Ġsources": 265,
      "ff": 266,
      "mb": 267,
      "op": 268,
      "te": 269,
      "ts": 270,
      "Ġen": 271,
      "onents": 272,
      "Ġwel": 273,
      "Ġwas": 274,
      "Ġvoice": 275,
      "Ġwell": 276,
      "ft": 277,
      "ial": 278,
      "si": 279,
      "ut": 280,
      "Ġtim": 281,
      "Ġst": 282,
      "aliz": 283,
      "ary": 284,
      "Ġinform": 285,
      "Ġrel": 286,
      "Ġdev": 287,
      "Ġcomponents": 288,
      "Ġinformation": 289,
      "ach": 290,
      "iev": 291,
      "us": 292,
      "ĠL": 293,
      "Ġon": 294,
      "Ġach": 295,
      "Ġob": 296,
      "elf": 297,
      "Ġprocess": 298,
      "ently": 299,
      "Ġfu": 300,
      "semb": 301,
      "Ġwhere": 302,
      "tain": 303,
      "Ġits": 304,
      "Ġspecific": 305,
      "ject": 306,
      "Ġachiev": 307,
      "age": 308,
      "et": 309,
      "fi": 310,
      "gu": 311,
      "ience": 312,
      "ol": 313,
      "om": 314,
      "ser": 315,
      "ted": 316,
      "war": 317,
      "Ġare": 318,
      "onal": 319,
      "tific": 320,
      "Ġph": 321,
      "Ġcan": 322,
      "Ġor": 323,
      "Ġinter": 324,
      "elop": 325,
      "ich": 326,
      "Ġupon": 327,
      "ments": 328,
      "ĠPro": 329,
      "Ġrelev": 330,
      "Ġdevelop": 331,
      "sembly": 332,
      "LP": 333,
      "able": 334,
      "ds": 335,
      "em": 336,
      "gence": 337,
      "ition": 338,
      "kil": 339,
      "ming": 340,
      "oth": 341,
      "ud": 342,
      "Ġal": 343,
      "Ġable": 344,
      "Ġals": 345,
      "tiv": 346,
      "erm": 347,
      "Ġsu": 348,
      "Ġskil": 349,
      "alu": 350,
      "elli": 351,
      "eline": 352,
      "Ġman": 353,
      "ations": 354,
      "Ġuti": 355,
      "Ġacc": 356,
      "Ġwhich": 357,
      "Ġrequ": 358,
      "Ġhow": 359,
      "Ġprogramming": 360,
      "ersonal": 361,
      "fied": 362,
      "Ġalso": 363,
      "Ġskills": 364,
      "elligence": 365,
      "Ġrequi": 366,
      ".,": 367,
      "ab": 368,
      "fy": 369,
      "iti": 370,
      "lo": 371,
      "nc": 372,
      "ogn": 373,
      "per": 374,
      "rtific": 375,
      "uter": 376,
      "Ġqu": 377,
      "ally": 378,
      "ari": 379,
      "ately": 380,
      "ore": 381,
      "Ġma": 382,
      "ech": 383,
      "ecogn": 384,
      "Ġassembly": 385,
      "Ġdes": 386,
      "rac": 387,
      "liz": 388,
      "Ġcomple": 389,
      "Ġcomputer": 390,
      "round": 391,
      "pond": 392,
      "ack": 393,
      "Ġimp": 394,
      "Ġphas": 395,
      "Ġrelevant": 396,
      "Ġdevelopment": 397,
      "Ġutiliz": 398,
      "rtificial": 399,
      "der": 400,
      "ew": 401,
      "ful": 402,
      "her": 403,
      "jus": 404,
      "ting": 405,
      "Ġ(": 406,
      "Ġis": 407,
      "Ġjus": 408,
      "Ġthese": 409,
      "Ġso": 410,
      "Ġsy": 411,
      "Ġch": 412,
      "Ġcor": 413,
      "all": 414,
      "uction": 415,
      "angu": 416,
      "ated": 417,
      "Ġassi": 418,
      "stant": 419,
      "Ġboth": 420,
      "evalu": 421,
      "ased": 422,
      "ility": 423,
      "âĢĻ": 424,
      "Ġinto": 425,
      "respond": 426,
      "Ġno": 427,
      "Ġtime": 428,
      "Ġstr": 429,
      "Ġrequire": 430,
      "nction": 431,
      "ecognition": 432,
      "Ġphase": 433,
      "Ġcorrespond": 434,
      "Ġassistant": 435,
      "To": 436,
      "am": 437,
      "atic": 438,
      "eg": 439,
      "ffic": 440,
      "ir": 441,
      "sed": 442,
      "telligence": 443,
      "ven": 444,
      "xt": 445,
      "ĠS": 446,
      "Ġl": 447,
      "tim": 448,
      "end": 449,
      "Ġsa": 450,
      "Ġpr": 451,
      "Ġpri": 452,
      "arge": 453,
      "Ġiniti": 454,
      "ans": 455,
      "atur": 456,
      "Ġrev": 457,
      "Ġback": 458,
      "Ġgen": 459,
      "ĠArtificial": 460,
      "Ġappro": 461,
      "ured": 462,
      "Ġmost": 463,
      "Ġconstruction": 464,
      "ĠPersonal": 465,
      "ĠNLP": 466,
      "ĠIntelligence": 467,
      "ftwar": 468,
      "Ġfunction": 469,
      "Ġitself": 470,
      "Ġinteres": 471,
      "ĠProject": 472,
      "tively": 473,
      "ability": 474,
      "echn": 475,
      "Ġdesi": 476,
      "Ġutilized": 477,
      "Ġjusti": 478,
      "Ġsoftwar": 479,
      "Ġchall": 480,
      "anguage": 481,
      "Ġrequirements": 482,
      "Ġprior": 483,
      "arget": 484,
      "Ġchallen": 485,
      "ag": 486,
      "etic": 487,
      "gin": 488,
      "iently": 489,
      "ke": 490,
      "ltim": 491,
      "old": 492,
      "ph": 493,
      "ust": 494,
      "ure": 495,
      "ver": 496,
      "ved": 497,
      "wo": 498,
      "ĠB": 499,
      "ĠO": 500,
      "ĠU": 501,
      "Ġy": 502,
      "Ġtes": 503,
      "Ġterm": 504,
      "Ġtechn": 505,
      "Ġtarget": 506,
      "Ġtwo": 507,
      "Ġaud": 508,
      "Ġaround": 509,
      "Ġself": 510,
      "ess": 511,
      "estion": 512,
      "esth": 513,
      "Ġpo": 514,
      "Ġpar": 515,
      "Ġperi": 516,
      "Ġcli": 517,
      "nder": 518,
      "ele": 519,
      "ical": 520,
      "ork": 521,
      "Ġrecognition": 522,
      "Ġfram": 523,
      "oun": 524,
      "econ": 525,
      "ectively": 526,
      "Ġaspec": 527,
      "stem": 528,
      "Ġby": 529,
      "Ġdi": 530,
      "Ġup": 531,
      "Ġuse": 532,
      "Ġultim": 533,
      "ĠAs": 534,
      "Ġeff": 535,
      "ill": 536,
      "ticul": 537,
      "uring": 538,
      "urth": 539,
      "Ġsource": 540,
      "Ġscience": 541,
      "Ġanal": 542,
      "Ġconstructing": 543,
      "ĠFrom": 544,
      "ĠNatur": 545,
      "text": 546,
      "Ġenti": 547,
      "Ġtimeline": 548,
      "ĠLanguage": 549,
      "Ġachievability": 550,
      "Ġorder": 551,
      "Ġquestion": 552,
      "Ġmain": 553,
      "ework": 554,
      "Ġsystem": 555,
      "evaluation": 556,
      "Ġstruct": 557,
      "Ġsaid": 558,
      "Ġrevol": 559,
      "Ġgeneral": 560,
      "Ġsoftware": 561,
      "Ġterms": 562,
      "esthetic": 563,
      "Ġparticul": 564,
      "Ġframework": 565,
      "Ġaspects": 566,
      "Ġuseful": 567,
      "Ġultimately": 568,
      "Ġeffectively": 569,
      "ĠNatural": 570,
      "Ġparticular": 571,
      "ML": 572,
      "PV": 573,
      "ad": 574,
      "ati": 575,
      "and": 576,
      "ace": 577,
      "ament": 578,
      "aff": 579,
      "bou": 580,
      "fin": 581,
      "fes": 582,
      "gm": 583,
      "ion": 584,
      "iven": 585,
      "lis": 586,
      "low": 587,
      "oc": 588,
      "od": 589,
      "og": 590,
      "pt": 591,
      "sis": 592,
      "tu": 593,
      "ty": 594,
      "ttain": 595,
      "trac": 596,
      "um": 597,
      "uth": 598,
      "vel": 599,
      "ving": 600,
      "veral": 601,
      "ysis": 602,
      "Ġ5": 603,
      "ĠD": 604,
      "ĠJ": 605,
      "Ġele": 606,
      "Ġam": 607,
      "Ġaesthetic": 608,
      "Ġattain": 609,
      "Ġauth": 610,
      "ered": 611,
      "Ġse": 612,
      "Ġsi": 613,
      "Ġsp": 614,
      "Ġsecon": 615,
      "Ġpra": 616,
      "Ġcl": 617,
      "Ġori": 618,
      "Ġoveral": 619,
      "als": 620,
      "ndament": 621,
      "ards": 622,
      "Ġinc": 623,
      "ance": 624,
      "ating": 625,
      "ateri": 626,
      "ather": 627,
      "Ġproject": 628,
      "lement": 629,
      "Ġdeline": 630,
      "Ġcons": 631,
      "Ġconduct": 632,
      "Ġuser": 633,
      "Ġgam": 634,
      "Ġgiven": 635,
      "Ġgather": 636,
      "earning": 637,
      "cessing": 638,
      "ources": 639,
      "tail": 640,
      "Ġreal": 641,
      "Ġinteg": 642,
      "Ġscaff": 643,
      "Ġgoals": 644,
      "Ġexc": 645,
      "Ġextrac": 646,
      "Ġmeas": 647,
      "Ġmeans": 648,
      "act": 649,
      "Ġdetail": 650,
      "Ġconstructed": 651,
      "ĠMach": 652,
      "erals": 653,
      "alized": 654,
      "ĠLearning": 655,
      "Ġfundament": 656,
      "Ġspecifications": 657,
      "ĠProcessing": 658,
      "ermore": 659,
      "Ġsub": 660,
      "Ġcomplete": 661,
      "Ġimplement": 662,
      "Ġcorrespondence": 663,
      "fficiently": 664,
      "Ġprim": 665,
      "Ġapproach": 666,
      "Ġdesign": 667,
      "Ġchallenge": 668,
      "pherals": 669,
      "ĠOPV": 670,
      "Ġtechnical": 671,
      "Ġaudience": 672,
      "Ġperipherals": 673,
      "Ġclient": 674,
      "urthermore": 675,
      "Ġanalysis": 676,
      "Ġentire": 677,
      "Ġrevolve": 678,
      "Ġsecond": 679,
      "Ġpragm": 680,
      "Ġoverall": 681,
      "Ġgames": 682,
      "Ġintegr": 683,
      "Ġscaffold": 684,
      "ĠMachine": 685,
      "ĠOPVL": 686,
      "Based": 687,
      "From": 688,
      "NLP": 689,
      "Th": 690,
      "Wh": 691,
      "ay": 692,
      "app": 693,
      "ave": 694,
      "blis": 695,
      "cle": 696,
      "cre": 697,
      "cus": 698,
      "eth": 699,
      "face": 700,
      "go": 701,
      "gan": 702,
      "ging": 703,
      "gine": 704,
      "ground": 705,
      "hould": 706,
      "igh": 707,
      "ifes": 708,
      "igo": 709,
      "ken": 710,
      "les": 711,
      "lut": 712,
      "min": 713,
      "por": 714,
      "ution": 715,
      "ugu": 716,
      "ycle": 717,
      "ĠC": 718,
      "ĠH": 719,
      "ĠR": 720,
      "Ġev": 721,
      "Ġta": 722,
      "Ġtas": 723,
      "Ġthem": 724,
      "tive": 725,
      "ery": 726,
      "ertain": 727,
      "erpt": 728,
      "ens": 729,
      "enti": 730,
      "ences": 731,
      "Ġsta": 732,
      "Ġsem": 733,
      "Ġshould": 734,
      "Ġpersonal": 735,
      "Ġcould": 736,
      "Ġcycle": 737,
      "Ġcertain": 738,
      "Ġwe": 739,
      "Ġwill": 740,
      "Ġop": 741,
      "art": 742,
      "Ġind": 743,
      "Ġinv": 744,
      "icate": 745,
      "Ġmore": 746,
      "Ġmust": 747,
      "Ġmateri": 748,
      "Ġrigo": 749,
      "Ġprov": 750,
      "Ġprove": 751,
      "ented": 752,
      "Ġfe": 753,
      "Ġfir": 754,
      "Ġfoc": 755,
      "Ġfact": 756,
      "Ġbut": 757,
      "Ġdra": 758,
      "Ġdis": 759,
      "Ġduring": 760,
      "Ġcontext": 761,
      "Ġconcre": 762,
      "Ġused": 763,
      "Ġunder": 764,
      "istic": 765,
      "mentary": 766,
      "reen": 767,
      "lift": 768,
      "sequ": 769,
      "Ġresources": 770,
      "Ġactu": 771,
      "rous": 772,
      "Ġreg": 773,
      "Ġprogres": 774,
      "Ġintr": 775,
      "Ġintelligence": 776,
      "Ġhave": 777,
      "ide": 778,
      "ize": 779,
      "Ġscreen": 780,
      "Ġexper": 781,
      "Ġspecified": 782,
      "Ġmeet": 783,
      "Ġnon": 784,
      "Ġdeter": 785,
      "Ġdefin": 786,
      "jective": 787,
      "ĠFor": 788,
      "ĠFlut": 789,
      "ĠML": 790,
      "Ġenc": 791,
      "Ġengine": 792,
      "alize": 793,
      "alization": 794,
      "Ġobtain": 795,
      "Ġobser": 796,
      "Ġobjective": 797,
      "Ġachievable": 798,
      "wards": 799,
      "Ġallo": 800,
      "Ġallow": 801,
      "Ġmanag": 802,
      "Ġmanifes": 803,
      "Ġnotion": 804,
      "Ġbackground": 805,
      "Ġinterests": 806,
      "Ġjustified": 807,
      "Ġyet": 808,
      "Ġtesting": 809,
      "Ġuplift": 810,
      "Ġquestions": 811,
      "Ġsystematic": 812,
      "Ġstructure": 813,
      "Ġelements": 814,
      "Ġsix": 815,
      "Ġorigin": 816,
      "Ġdelineated": 817,
      "Ġconducted": 818,
      "Ġrealistic": 819,
      "Ġexcerpt": 820,
      "Ġextracted": 821,
      "Ġmeasured": 822,
      "Ġdetails": 823,
      "Ġsecondary": 824,
      "Ġpragmatic": 825,
      "The": 826,
      "When": 827,
      "Ġtask": 828,
      "Ġstand": 829,
      "Ġrigorous": 830,
      "Ġfirst": 831,
      "Ġfactor": 832,
      "Ġdraft": 833,
      "Ġdiscus": 834,
      "Ġconcrete": 835,
      "sequently": 836,
      "Ġprogress": 837,
      "Ġmeeting": 838,
      "ĠFlutter": 839,
      "Ġobserved": 840,
      "Ġmanaged": 841,
      ").": 842,
      "DK": 843,
      "EV": 844,
      "In": 845,
      "Voice": 846,
      "With": 847,
      "av": 848,
      "based": 849,
      "ct": 850,
      "cy": 851,
      "cin": 852,
      "dd": 853,
      "de": 854,
      "do": 855,
      "ding": 856,
      "day": 857,
      "eal": 858,
      "emp": 859,
      "eech": 860,
      "ges": 861,
      "gic": 862,
      "gor": 863,
      "gth": 864,
      "gre": 865,
      "gram": 866,
      "hed": 867,
      "ia": 868,
      "iel": 869,
      "ild": 870,
      "itic": 871,
      "ium": 872,
      "jor": 873,
      "king": 874,
      "led": 875,
      "lity": 876,
      "lud": 877,
      "mm": 878,
      "ns": 879,
      "nth": 880,
      "noth": 881,
      "omp": 882,
      "po": 883,
      "par": 884,
      "peri": 885,
      "pri": 886,
      "rtic": 887,
      "ss": 888,
      "sic": 889,
      "spec": 890,
      "to": 891,
      "ton": 892,
      "tend": 893,
      "ub": 894,
      "ue": 895,
      "ual": 896,
      "ustr": 897,
      "uary": 898,
      "urac": 899,
      "ugin": 900,
      "uild": 901,
      "Ġk": 902,
      "Ġes": 903,
      "Ġli": 904,
      "Ġim": 905,
      "Ġevalu": 906,
      "ĠTo": 907,
      "Ġke": 908,
      "ĠThe": 909,
      "Ġab": 910,
      "Ġad": 911,
      "Ġaim": 912,
      "Ġaff": 913,
      "Ġaut": 914,
      "Ġartificial": 915,
      "Ġabou": 916,
      "Ġartic": 917,
      "ind": 918,
      "inant": 919,
      "inion": 920,
      "Ġtheir": 921,
      "ties": 922,
      "erce": 923,
      "eno": 924,
      "ense": 925,
      "entic": 926,
      "enom": 927,
      "ength": 928,
      "Ġset": 929,
      "Ġsom": 930,
      "Ġpur": 931,
      "Ġpres": 932,
      "Ġperce": 933,
      "rogram": 934,
      "Ġoper": 935,
      "alid": 936,
      "edom": 937,
      "edium": 938,
      "ite": 939,
      "itab": 940,
      "ndari": 941,
      "uced": 942,
      "ucial": 943,
      "anti": 944,
      "antic": 945,
      "anuary": 946,
      "eless": 947,
      "ort": 948,
      "orpor": 949,
      "Ġtowards": 950,
      "Ġmedium": 951,
      "Ġfr": 952,
      "Ġfas": 953,
      "Ġful": 954,
      "Ġfurthermore": 955,
      "ous": 956,
      "stand": 957,
      "stanti": 958,
      "Ġbuild": 959,
      "Ġdeno": 960,
      "ever": 961,
      "mple": 962,
      "mplo": 963,
      "ithm": 964,
      "asi": 965,
      "assembly": 966,
      "Ġcond": 967,
      "Ġconf": 968,
      "Ġconven": 969,
      "ise": 970,
      "isual": 971,
      "Ġcomm": 972,
      "ĠAugu": 973,
      "ĠAEV": 974,
      "ĠAdd": 975,
      "ligh": 976,
      "Ġeach": 977,
      "Ġefficiently": 978,
      "Ġemplo": 979,
      "Ġcompart": 980,
      "terface": 981,
      "ilst": 982,
      "Ġbeen": 983,
      "âĢĿ": 984,
      "Ġvers": 985,
      "Ġvalu": 986,
      "Ġvery": 987,
      "Ġvide": 988,
      "Ġvia": 989,
      "Ġvalid": 990,
      "Ġvisual": 991,
      "Ġappeal": 992,
      "Ġplugin": 993,
      "Ġwhat": 994,
      "Ġwhom": 995,
      "Ġwhilst": 996,
      "table": 997,
      "tablis": 998,
      "taken": 999,
      "Ġref": 1000,
      "Ġcritic": 1001,
      "Ġcrucial": 1002,
      "Ġintend": 1003,
      "Ġhence": 1004,
      "Ġhigh": 1005,
      "ĠâĢľ": 1006,
      "Ġform": 1007,
      "idered": 1008,
      "ized": 1009,
      "own": 1010,
      "Ġlevel": 1011,
      "Ġscr": 1012,
      "Ġscop": 1013,
      "ulty": 1014,
      "Ġexemp": 1015,
      "Ġspecify": 1016,
      "Ġmeth": 1017,
      "Ġdegre": 1018,
      "Ġactions": 1019,
      "forming": 1020,
      "ĠFurthermore": 1021,
      "ĠMo": 1022,
      "ffer": 1023,
      "sion": 1024,
      "Ġstate": 1025,
      "Ġdevice": 1026,
      "Ġones": 1027,
      "Ġonly": 1028,
      "Ġspecifically": 1029,
      "olution": 1030,
      "Ġphenom": 1031,
      "Ġorgan": 1032,
      "Ġintern": 1033,
      "itionally": 1034,
      "Ġalgor": 1035,
      "tivity": 1036,
      "Ġsufficiently": 1037,
      "Ġaccor": 1038,
      "Ġaccur": 1039,
      "Ġaccoun": 1040,
      "Ġaccurac": 1041,
      "Ġrequires": 1042,
      "logic": 1043,
      "arily": 1044,
      "Ġmajor": 1045,
      "Ġcomplementary": 1046,
      "Ġimport": 1047,
      "Ġutilize": 1048,
      "Ġsynth": 1049,
      "Ġnovel": 1050,
      "Ġstrength": 1051,
      "Today": 1052,
      "fficulty": 1053,
      "ĠSDK": 1054,
      "Ġpredom": 1055,
      "Ġinitialized": 1056,
      "Ġbackend": 1057,
      "Ġappropri": 1058,
      "Ġinterested": 1059,
      "Ġjustify": 1060,
      "ages": 1061,
      "ĠBy": 1062,
      "ĠUI": 1063,
      "Ġpoin": 1064,
      "ounter": 1065,
      "Ġdiffer": 1066,
      "Ġdifficulty": 1067,
      "Ġsystems": 1068,
      "Ġstructured": 1069,
      "Ġparticularly": 1070,
      "ands": 1071,
      "uman": 1072,
      "ĠDue": 1073,
      "ĠJanuary": 1074,
      "Ġaesthetics": 1075,
      "Ġaesthetical": 1076,
      "Ġattained": 1077,
      "Ġauthor": 1078,
      "Ġauthentic": 1079,
      "Ġsequ": 1080,
      "Ġsepar": 1081,
      "Ġspeech": 1082,
      "Ġclas": 1083,
      "Ġclari": 1084,
      "Ġinclud": 1085,
      "Ġincorpor": 1086,
      "Ġconsidered": 1087,
      "Ġgathered": 1088,
      "Ġfundamental": 1089,
      "Ġprimary": 1090,
      "Ġprimarily": 1091,
      "Ġapproached": 1092,
      "Ġintegrate": 1093,
      "Ġscaffolding": 1094,
      "etheless": 1095,
      "ĠRecognition": 1096,
      "Ġtake": 1097,
      "Ġsemantic": 1098,
      "Ġopinion": 1099,
      "Ġindicate": 1100,
      "Ġmaterials": 1101,
      "Ġregards": 1102,
      "Ġexpert": 1103,
      "Ġnonetheless": 1104,
      "Ġdetermin": 1105,
      "Ġencounter": 1106,
      "Ġengineer": 1107,
      "Ġallot": 1108,
      "Ġallowed": 1109,
      "Ġmanifestable": 1110,
      "Ġuplifted": 1111,
      "Ġsystematically": 1112,
      "Ġstandards": 1113,
      "Ġfactors": 1114,
      "Ġdrafting": 1115,
      "Ġdiscussed": 1116,
      "ield": 1117,
      "nother": 1118,
      "Ġestablis": 1119,
      "Ġevaluate": 1120,
      "Ġkey": 1121,
      "Ġautom": 1122,
      "Ġabout": 1123,
      "Ġpurpo": 1124,
      "Ġpercei": 1125,
      "itably": 1126,
      "ndaries": 1127,
      "Ġfascin": 1128,
      "Ġfulf": 1129,
      "standing": 1130,
      "Ġcommands": 1131,
      "ĠAugust": 1132,
      "ĠAEVA": 1133,
      "ĠAdditionally": 1134,
      "Ġemploy": 1135,
      "Ġvideo": 1136,
      "Ġhighligh": 1137,
      "Ġscope": 1138,
      "Ġdegree": 1139,
      "Ġphenomen": 1140,
      "Ġalgorithm": 1141,
      "Ġaccount": 1142,
      "Ġaccuracy": 1143,
      "Ġsynthes": 1144,
      "Ġpredominant": 1145,
      "Ġincluding": 1146,
      "Ġsemantics": 1147
    },
    "merges": [
      [
        "Ġ",
        "t"
      ],
      [
        "Ġ",
        "a"
      ],
      [
        "Ġt",
        "h"
      ],
      [
        "i",
        "n"
      ],
      [
        "Ġth",
        "e"
      ],
      [
        "o",
        "n"
      ],
      [
        "t",
        "i"
      ],
      [
        "e",
        "r"
      ],
      [
        "e",
        "n"
      ],
      [
        "Ġ",
        "s"
      ],
      [
        "e",
        "s"
      ],
      [
        "Ġ",
        "p"
      ],
      [
        "r",
        "o"
      ],
      [
        "Ġ",
        "c"
      ],
      [
        "Ġ",
        "w"
      ],
      [
        "Ġ",
        "o"
      ],
      [
        "a",
        "l"
      ],
      [
        "e",
        "d"
      ],
      [
        "i",
        "t"
      ],
      [
        "n",
        "d"
      ],
      [
        "ti",
        "on"
      ],
      [
        "a",
        "r"
      ],
      [
        "Ġo",
        "f"
      ],
      [
        "u",
        "c"
      ],
      [
        "Ġ",
        "in"
      ],
      [
        "a",
        "n"
      ],
      [
        "e",
        "l"
      ],
      [
        "a",
        "t"
      ],
      [
        "in",
        "g"
      ],
      [
        "i",
        "c"
      ],
      [
        "o",
        "r"
      ],
      [
        "Ġt",
        "o"
      ],
      [
        "Ġa",
        "nd"
      ],
      [
        "Ġ",
        "m"
      ],
      [
        "Ġ",
        "r"
      ],
      [
        "Ġp",
        "ro"
      ],
      [
        "l",
        "e"
      ],
      [
        "en",
        "t"
      ],
      [
        "Ġ",
        "f"
      ],
      [
        "o",
        "u"
      ],
      [
        "e",
        "c"
      ],
      [
        "Ġa",
        "s"
      ],
      [
        "s",
        "t"
      ],
      [
        "a",
        "tion"
      ],
      [
        "Ġ",
        "b"
      ],
      [
        "Ġ",
        "d"
      ],
      [
        "uc",
        "t"
      ],
      [
        "e",
        "v"
      ],
      [
        "c",
        "es"
      ],
      [
        "m",
        "p"
      ],
      [
        "Ġ",
        "I"
      ],
      [
        "c",
        "h"
      ],
      [
        "it",
        "h"
      ],
      [
        "c",
        "e"
      ],
      [
        "r",
        "a"
      ],
      [
        "a",
        "s"
      ],
      [
        "Ġc",
        "on"
      ],
      [
        "Ġw",
        "ith"
      ],
      [
        "l",
        "y"
      ],
      [
        "Ġ",
        "u"
      ],
      [
        "i",
        "s"
      ],
      [
        "d",
        "uct"
      ],
      [
        "Ġc",
        "o"
      ],
      [
        "t",
        "h"
      ],
      [
        "Ġ",
        "g"
      ],
      [
        "l",
        "d"
      ],
      [
        "m",
        "ent"
      ],
      [
        "Ġ",
        "A"
      ],
      [
        "r",
        "e"
      ],
      [
        "Ġpro",
        "duct"
      ],
      [
        "l",
        "i"
      ],
      [
        "Ġ",
        "e"
      ],
      [
        "Ġth",
        "at"
      ],
      [
        "Ġco",
        "mp"
      ],
      [
        "t",
        "er"
      ],
      [
        "e",
        "ar"
      ],
      [
        "i",
        "l"
      ],
      [
        "p",
        "p"
      ],
      [
        "s",
        "e"
      ],
      [
        "Ġs",
        "uc"
      ],
      [
        "ces",
        "s"
      ],
      [
        "er",
        "i"
      ],
      [
        "Ġr",
        "es"
      ],
      [
        "ou",
        "ld"
      ],
      [
        "Ġb",
        "e"
      ],
      [
        "f",
        "ic"
      ],
      [
        "â",
        "Ģ"
      ],
      [
        "Ġ",
        "v"
      ],
      [
        "ti",
        "c"
      ],
      [
        "er",
        "e"
      ],
      [
        "en",
        "ce"
      ],
      [
        "Ġwith",
        "in"
      ],
      [
        "Ġa",
        "c"
      ],
      [
        "Ġa",
        "pp"
      ],
      [
        "Ġp",
        "l"
      ],
      [
        "Ġw",
        "h"
      ],
      [
        "ra",
        "m"
      ],
      [
        "u",
        "r"
      ],
      [
        "ro",
        "u"
      ],
      [
        "p",
        "ec"
      ],
      [
        "ou",
        "r"
      ],
      [
        "ear",
        "ch"
      ],
      [
        "Ġres",
        "earch"
      ],
      [
        "Ġpl",
        "an"
      ],
      [
        "b",
        "le"
      ],
      [
        "t",
        "a"
      ],
      [
        "Ġw",
        "ould"
      ],
      [
        "st",
        "r"
      ],
      [
        "Ġm",
        "o"
      ],
      [
        "Ġr",
        "e"
      ],
      [
        "Ġpro",
        "g"
      ],
      [
        "q",
        "u"
      ],
      [
        "ro",
        "m"
      ],
      [
        "Ġc",
        "r"
      ],
      [
        "g",
        "e"
      ],
      [
        "i",
        "m"
      ],
      [
        "n",
        "ing"
      ],
      [
        "Ġin",
        "t"
      ],
      [
        "Ġcon",
        "str"
      ],
      [
        "g",
        "h"
      ],
      [
        "Ġ",
        "h"
      ],
      [
        "Ġ",
        "it"
      ],
      [
        "Ġ",
        "âĢ"
      ],
      [
        "an",
        "t"
      ],
      [
        "at",
        "e"
      ],
      [
        "Ġf",
        "or"
      ],
      [
        "Ġprog",
        "ram"
      ],
      [
        "i",
        "d"
      ],
      [
        "i",
        "z"
      ],
      [
        "l",
        "ic"
      ],
      [
        "p",
        "on"
      ],
      [
        "Ġs",
        "our"
      ],
      [
        "f",
        "or"
      ],
      [
        "l",
        "s"
      ],
      [
        "o",
        "w"
      ],
      [
        "Ġ",
        "P"
      ],
      [
        "Ġ",
        "le"
      ],
      [
        "in",
        "e"
      ],
      [
        "Ġs",
        "c"
      ],
      [
        "Ġw",
        "ere"
      ],
      [
        "it",
        "eri"
      ],
      [
        "Ġcr",
        "iteri"
      ],
      [
        "ĠâĢ",
        "ĵ"
      ],
      [
        "Ġcriteri",
        "a"
      ],
      [
        "b",
        "i"
      ],
      [
        "o",
        "al"
      ],
      [
        "u",
        "l"
      ],
      [
        "Ġa",
        "n"
      ],
      [
        "ic",
        "e"
      ],
      [
        "Ġm",
        "y"
      ],
      [
        "Ġg",
        "oal"
      ],
      [
        "Ġe",
        "x"
      ],
      [
        "Ġapp",
        "lic"
      ],
      [
        "pec",
        "i"
      ],
      [
        "bi",
        "le"
      ],
      [
        "v",
        "e"
      ],
      [
        "Ġs",
        "peci"
      ],
      [
        "Ġm",
        "e"
      ],
      [
        "ent",
        "s"
      ],
      [
        "Ġsuc",
        "cess"
      ],
      [
        "Ġmo",
        "bile"
      ],
      [
        "Ġapplic",
        "ation"
      ],
      [
        "a",
        "c"
      ],
      [
        "o",
        "ice"
      ],
      [
        "r",
        "i"
      ],
      [
        "r",
        "es"
      ],
      [
        "Ġ",
        "i"
      ],
      [
        "Ġ",
        "n"
      ],
      [
        "er",
        "s"
      ],
      [
        "it",
        "y"
      ],
      [
        "ar",
        "ning"
      ],
      [
        "el",
        "y"
      ],
      [
        "Ġd",
        "e"
      ],
      [
        "Ġsuc",
        "h"
      ],
      [
        "Ġac",
        "tion"
      ],
      [
        "rou",
        "gh"
      ],
      [
        "Ġconstr",
        "uct"
      ],
      [
        "for",
        "m"
      ],
      [
        "Ġle",
        "arning"
      ],
      [
        "g",
        "n"
      ],
      [
        "j",
        "ec"
      ],
      [
        "Ġ",
        "F"
      ],
      [
        "Ġ",
        "M"
      ],
      [
        "Ġ",
        "N"
      ],
      [
        "Ġth",
        "is"
      ],
      [
        "Ġth",
        "rough"
      ],
      [
        "er",
        "al"
      ],
      [
        "Ġf",
        "rom"
      ],
      [
        "ĠI",
        "n"
      ],
      [
        "ĠA",
        "I"
      ],
      [
        "Ġsour",
        "ces"
      ],
      [
        "f",
        "f"
      ],
      [
        "m",
        "b"
      ],
      [
        "o",
        "p"
      ],
      [
        "t",
        "e"
      ],
      [
        "t",
        "s"
      ],
      [
        "Ġ",
        "en"
      ],
      [
        "on",
        "ents"
      ],
      [
        "Ġw",
        "el"
      ],
      [
        "Ġw",
        "as"
      ],
      [
        "Ġv",
        "oice"
      ],
      [
        "Ġwel",
        "l"
      ],
      [
        "f",
        "t"
      ],
      [
        "i",
        "al"
      ],
      [
        "s",
        "i"
      ],
      [
        "u",
        "t"
      ],
      [
        "Ġt",
        "im"
      ],
      [
        "Ġs",
        "t"
      ],
      [
        "al",
        "iz"
      ],
      [
        "ar",
        "y"
      ],
      [
        "Ġin",
        "form"
      ],
      [
        "Ġr",
        "el"
      ],
      [
        "Ġd",
        "ev"
      ],
      [
        "Ġcomp",
        "onents"
      ],
      [
        "Ġinform",
        "ation"
      ],
      [
        "a",
        "ch"
      ],
      [
        "i",
        "ev"
      ],
      [
        "u",
        "s"
      ],
      [
        "Ġ",
        "L"
      ],
      [
        "Ġ",
        "on"
      ],
      [
        "Ġa",
        "ch"
      ],
      [
        "Ġo",
        "b"
      ],
      [
        "el",
        "f"
      ],
      [
        "Ġpro",
        "cess"
      ],
      [
        "ent",
        "ly"
      ],
      [
        "Ġf",
        "u"
      ],
      [
        "se",
        "mb"
      ],
      [
        "Ġwh",
        "ere"
      ],
      [
        "ta",
        "in"
      ],
      [
        "Ġit",
        "s"
      ],
      [
        "Ġspeci",
        "fic"
      ],
      [
        "jec",
        "t"
      ],
      [
        "Ġach",
        "iev"
      ],
      [
        "a",
        "ge"
      ],
      [
        "e",
        "t"
      ],
      [
        "f",
        "i"
      ],
      [
        "g",
        "u"
      ],
      [
        "i",
        "ence"
      ],
      [
        "o",
        "l"
      ],
      [
        "o",
        "m"
      ],
      [
        "s",
        "er"
      ],
      [
        "t",
        "ed"
      ],
      [
        "w",
        "ar"
      ],
      [
        "Ġa",
        "re"
      ],
      [
        "on",
        "al"
      ],
      [
        "ti",
        "fic"
      ],
      [
        "Ġp",
        "h"
      ],
      [
        "Ġc",
        "an"
      ],
      [
        "Ġo",
        "r"
      ],
      [
        "Ġin",
        "ter"
      ],
      [
        "el",
        "op"
      ],
      [
        "ic",
        "h"
      ],
      [
        "Ġu",
        "pon"
      ],
      [
        "ment",
        "s"
      ],
      [
        "ĠP",
        "ro"
      ],
      [
        "Ġrel",
        "ev"
      ],
      [
        "Ġdev",
        "elop"
      ],
      [
        "semb",
        "ly"
      ],
      [
        "L",
        "P"
      ],
      [
        "a",
        "ble"
      ],
      [
        "d",
        "s"
      ],
      [
        "e",
        "m"
      ],
      [
        "g",
        "ence"
      ],
      [
        "i",
        "tion"
      ],
      [
        "k",
        "il"
      ],
      [
        "m",
        "ing"
      ],
      [
        "o",
        "th"
      ],
      [
        "u",
        "d"
      ],
      [
        "Ġa",
        "l"
      ],
      [
        "Ġa",
        "ble"
      ],
      [
        "Ġa",
        "ls"
      ],
      [
        "ti",
        "v"
      ],
      [
        "er",
        "m"
      ],
      [
        "Ġs",
        "u"
      ],
      [
        "Ġs",
        "kil"
      ],
      [
        "al",
        "u"
      ],
      [
        "el",
        "li"
      ],
      [
        "el",
        "ine"
      ],
      [
        "Ġm",
        "an"
      ],
      [
        "ation",
        "s"
      ],
      [
        "Ġu",
        "ti"
      ],
      [
        "Ġac",
        "c"
      ],
      [
        "Ġwh",
        "ich"
      ],
      [
        "Ġre",
        "qu"
      ],
      [
        "Ġh",
        "ow"
      ],
      [
        "Ġprogram",
        "ming"
      ],
      [
        "ers",
        "onal"
      ],
      [
        "fi",
        "ed"
      ],
      [
        "Ġals",
        "o"
      ],
      [
        "Ġskil",
        "ls"
      ],
      [
        "elli",
        "gence"
      ],
      [
        "Ġrequ",
        "i"
      ],
      [
        ".",
        ","
      ],
      [
        "a",
        "b"
      ],
      [
        "f",
        "y"
      ],
      [
        "i",
        "ti"
      ],
      [
        "l",
        "o"
      ],
      [
        "n",
        "c"
      ],
      [
        "o",
        "gn"
      ],
      [
        "p",
        "er"
      ],
      [
        "r",
        "tific"
      ],
      [
        "u",
        "ter"
      ],
      [
        "Ġ",
        "qu"
      ],
      [
        "al",
        "ly"
      ],
      [
        "ar",
        "i"
      ],
      [
        "at",
        "ely"
      ],
      [
        "or",
        "e"
      ],
      [
        "Ġm",
        "a"
      ],
      [
        "ec",
        "h"
      ],
      [
        "ec",
        "ogn"
      ],
      [
        "Ġas",
        "sembly"
      ],
      [
        "Ġd",
        "es"
      ],
      [
        "ra",
        "c"
      ],
      [
        "li",
        "z"
      ],
      [
        "Ġcomp",
        "le"
      ],
      [
        "Ġcomp",
        "uter"
      ],
      [
        "rou",
        "nd"
      ],
      [
        "pon",
        "d"
      ],
      [
        "ac",
        "k"
      ],
      [
        "Ġi",
        "mp"
      ],
      [
        "Ġph",
        "as"
      ],
      [
        "Ġrelev",
        "ant"
      ],
      [
        "Ġdevelop",
        "ment"
      ],
      [
        "Ġuti",
        "liz"
      ],
      [
        "rtific",
        "ial"
      ],
      [
        "d",
        "er"
      ],
      [
        "e",
        "w"
      ],
      [
        "f",
        "ul"
      ],
      [
        "h",
        "er"
      ],
      [
        "j",
        "us"
      ],
      [
        "t",
        "ing"
      ],
      [
        "Ġ",
        "("
      ],
      [
        "Ġ",
        "is"
      ],
      [
        "Ġ",
        "jus"
      ],
      [
        "Ġthe",
        "se"
      ],
      [
        "Ġs",
        "o"
      ],
      [
        "Ġs",
        "y"
      ],
      [
        "Ġc",
        "h"
      ],
      [
        "Ġc",
        "or"
      ],
      [
        "al",
        "l"
      ],
      [
        "uc",
        "tion"
      ],
      [
        "an",
        "gu"
      ],
      [
        "at",
        "ed"
      ],
      [
        "Ġas",
        "si"
      ],
      [
        "st",
        "ant"
      ],
      [
        "Ġb",
        "oth"
      ],
      [
        "ev",
        "alu"
      ],
      [
        "as",
        "ed"
      ],
      [
        "il",
        "ity"
      ],
      [
        "âĢ",
        "Ļ"
      ],
      [
        "Ġint",
        "o"
      ],
      [
        "res",
        "pond"
      ],
      [
        "Ġn",
        "o"
      ],
      [
        "Ġtim",
        "e"
      ],
      [
        "Ġst",
        "r"
      ],
      [
        "Ġrequi",
        "re"
      ],
      [
        "nc",
        "tion"
      ],
      [
        "ecogn",
        "ition"
      ],
      [
        "Ġphas",
        "e"
      ],
      [
        "Ġcor",
        "respond"
      ],
      [
        "Ġassi",
        "stant"
      ],
      [
        "T",
        "o"
      ],
      [
        "a",
        "m"
      ],
      [
        "a",
        "tic"
      ],
      [
        "e",
        "g"
      ],
      [
        "f",
        "fic"
      ],
      [
        "i",
        "r"
      ],
      [
        "s",
        "ed"
      ],
      [
        "t",
        "elligence"
      ],
      [
        "v",
        "en"
      ],
      [
        "x",
        "t"
      ],
      [
        "Ġ",
        "S"
      ],
      [
        "Ġ",
        "l"
      ],
      [
        "ti",
        "m"
      ],
      [
        "en",
        "d"
      ],
      [
        "Ġs",
        "a"
      ],
      [
        "Ġp",
        "r"
      ],
      [
        "Ġp",
        "ri"
      ],
      [
        "ar",
        "ge"
      ],
      [
        "Ġin",
        "iti"
      ],
      [
        "an",
        "s"
      ],
      [
        "at",
        "ur"
      ],
      [
        "Ġr",
        "ev"
      ],
      [
        "Ġb",
        "ack"
      ],
      [
        "Ġg",
        "en"
      ],
      [
        "ĠA",
        "rtificial"
      ],
      [
        "Ġapp",
        "ro"
      ],
      [
        "ur",
        "ed"
      ],
      [
        "Ġmo",
        "st"
      ],
      [
        "Ġconstr",
        "uction"
      ],
      [
        "ĠP",
        "ersonal"
      ],
      [
        "ĠN",
        "LP"
      ],
      [
        "ĠIn",
        "telligence"
      ],
      [
        "ft",
        "war"
      ],
      [
        "Ġfu",
        "nction"
      ],
      [
        "Ġits",
        "elf"
      ],
      [
        "Ġinter",
        "es"
      ],
      [
        "ĠPro",
        "ject"
      ],
      [
        "tiv",
        "ely"
      ],
      [
        "ab",
        "ility"
      ],
      [
        "ech",
        "n"
      ],
      [
        "Ġdes",
        "i"
      ],
      [
        "Ġutiliz",
        "ed"
      ],
      [
        "Ġjus",
        "ti"
      ],
      [
        "Ġso",
        "ftwar"
      ],
      [
        "Ġch",
        "all"
      ],
      [
        "angu",
        "age"
      ],
      [
        "Ġrequire",
        "ments"
      ],
      [
        "Ġpri",
        "or"
      ],
      [
        "arge",
        "t"
      ],
      [
        "Ġchall",
        "en"
      ],
      [
        "a",
        "g"
      ],
      [
        "e",
        "tic"
      ],
      [
        "g",
        "in"
      ],
      [
        "i",
        "ently"
      ],
      [
        "k",
        "e"
      ],
      [
        "l",
        "tim"
      ],
      [
        "o",
        "ld"
      ],
      [
        "p",
        "h"
      ],
      [
        "u",
        "st"
      ],
      [
        "u",
        "re"
      ],
      [
        "v",
        "er"
      ],
      [
        "v",
        "ed"
      ],
      [
        "w",
        "o"
      ],
      [
        "Ġ",
        "B"
      ],
      [
        "Ġ",
        "O"
      ],
      [
        "Ġ",
        "U"
      ],
      [
        "Ġ",
        "y"
      ],
      [
        "Ġt",
        "es"
      ],
      [
        "Ġt",
        "erm"
      ],
      [
        "Ġt",
        "echn"
      ],
      [
        "Ġt",
        "arget"
      ],
      [
        "Ġt",
        "wo"
      ],
      [
        "Ġa",
        "ud"
      ],
      [
        "Ġa",
        "round"
      ],
      [
        "Ġs",
        "elf"
      ],
      [
        "es",
        "s"
      ],
      [
        "es",
        "tion"
      ],
      [
        "es",
        "th"
      ],
      [
        "Ġp",
        "o"
      ],
      [
        "Ġp",
        "ar"
      ],
      [
        "Ġp",
        "eri"
      ],
      [
        "Ġc",
        "li"
      ],
      [
        "nd",
        "er"
      ],
      [
        "el",
        "e"
      ],
      [
        "ic",
        "al"
      ],
      [
        "or",
        "k"
      ],
      [
        "Ġr",
        "ecognition"
      ],
      [
        "Ġf",
        "ram"
      ],
      [
        "ou",
        "n"
      ],
      [
        "ec",
        "on"
      ],
      [
        "ec",
        "tively"
      ],
      [
        "Ġas",
        "pec"
      ],
      [
        "st",
        "em"
      ],
      [
        "Ġb",
        "y"
      ],
      [
        "Ġd",
        "i"
      ],
      [
        "Ġu",
        "p"
      ],
      [
        "Ġu",
        "se"
      ],
      [
        "Ġu",
        "ltim"
      ],
      [
        "ĠA",
        "s"
      ],
      [
        "Ġe",
        "ff"
      ],
      [
        "il",
        "l"
      ],
      [
        "tic",
        "ul"
      ],
      [
        "ur",
        "ing"
      ],
      [
        "ur",
        "th"
      ],
      [
        "Ġsour",
        "ce"
      ],
      [
        "Ġsc",
        "ience"
      ],
      [
        "Ġan",
        "al"
      ],
      [
        "Ġconstruct",
        "ing"
      ],
      [
        "ĠF",
        "rom"
      ],
      [
        "ĠN",
        "atur"
      ],
      [
        "te",
        "xt"
      ],
      [
        "Ġen",
        "ti"
      ],
      [
        "Ġtim",
        "eline"
      ],
      [
        "ĠL",
        "anguage"
      ],
      [
        "Ġachiev",
        "ability"
      ],
      [
        "Ġor",
        "der"
      ],
      [
        "Ġqu",
        "estion"
      ],
      [
        "Ġma",
        "in"
      ],
      [
        "ew",
        "ork"
      ],
      [
        "Ġsy",
        "stem"
      ],
      [
        "evalu",
        "ation"
      ],
      [
        "Ġstr",
        "uct"
      ],
      [
        "Ġsa",
        "id"
      ],
      [
        "Ġrev",
        "ol"
      ],
      [
        "Ġgen",
        "eral"
      ],
      [
        "Ġsoftwar",
        "e"
      ],
      [
        "Ġterm",
        "s"
      ],
      [
        "esth",
        "etic"
      ],
      [
        "Ġpar",
        "ticul"
      ],
      [
        "Ġfram",
        "ework"
      ],
      [
        "Ġaspec",
        "ts"
      ],
      [
        "Ġuse",
        "ful"
      ],
      [
        "Ġultim",
        "ately"
      ],
      [
        "Ġeff",
        "ectively"
      ],
      [
        "ĠNatur",
        "al"
      ],
      [
        "Ġparticul",
        "ar"
      ],
      [
        "M",
        "L"
      ],
      [
        "P",
        "V"
      ],
      [
        "a",
        "d"
      ],
      [
        "a",
        "ti"
      ],
      [
        "a",
        "nd"
      ],
      [
        "a",
        "ce"
      ],
      [
        "a",
        "ment"
      ],
      [
        "a",
        "ff"
      ],
      [
        "b",
        "ou"
      ],
      [
        "f",
        "in"
      ],
      [
        "f",
        "es"
      ],
      [
        "g",
        "m"
      ],
      [
        "i",
        "on"
      ],
      [
        "i",
        "ven"
      ],
      [
        "l",
        "is"
      ],
      [
        "l",
        "ow"
      ],
      [
        "o",
        "c"
      ],
      [
        "o",
        "d"
      ],
      [
        "o",
        "g"
      ],
      [
        "p",
        "t"
      ],
      [
        "s",
        "is"
      ],
      [
        "t",
        "u"
      ],
      [
        "t",
        "y"
      ],
      [
        "t",
        "tain"
      ],
      [
        "t",
        "rac"
      ],
      [
        "u",
        "m"
      ],
      [
        "u",
        "th"
      ],
      [
        "v",
        "el"
      ],
      [
        "v",
        "ing"
      ],
      [
        "v",
        "eral"
      ],
      [
        "y",
        "sis"
      ],
      [
        "Ġ",
        "5"
      ],
      [
        "Ġ",
        "D"
      ],
      [
        "Ġ",
        "J"
      ],
      [
        "Ġ",
        "ele"
      ],
      [
        "Ġa",
        "m"
      ],
      [
        "Ġa",
        "esthetic"
      ],
      [
        "Ġa",
        "ttain"
      ],
      [
        "Ġa",
        "uth"
      ],
      [
        "er",
        "ed"
      ],
      [
        "Ġs",
        "e"
      ],
      [
        "Ġs",
        "i"
      ],
      [
        "Ġs",
        "p"
      ],
      [
        "Ġs",
        "econ"
      ],
      [
        "Ġp",
        "ra"
      ],
      [
        "Ġc",
        "l"
      ],
      [
        "Ġo",
        "ri"
      ],
      [
        "Ġo",
        "veral"
      ],
      [
        "al",
        "s"
      ],
      [
        "nd",
        "ament"
      ],
      [
        "ar",
        "ds"
      ],
      [
        "Ġin",
        "c"
      ],
      [
        "an",
        "ce"
      ],
      [
        "at",
        "ing"
      ],
      [
        "at",
        "eri"
      ],
      [
        "at",
        "her"
      ],
      [
        "Ġpro",
        "ject"
      ],
      [
        "le",
        "ment"
      ],
      [
        "Ġd",
        "eline"
      ],
      [
        "Ġcon",
        "s"
      ],
      [
        "Ġcon",
        "duct"
      ],
      [
        "Ġu",
        "ser"
      ],
      [
        "Ġg",
        "am"
      ],
      [
        "Ġg",
        "iven"
      ],
      [
        "Ġg",
        "ather"
      ],
      [
        "ear",
        "ning"
      ],
      [
        "cess",
        "ing"
      ],
      [
        "our",
        "ces"
      ],
      [
        "ta",
        "il"
      ],
      [
        "Ġre",
        "al"
      ],
      [
        "Ġint",
        "eg"
      ],
      [
        "Ġsc",
        "aff"
      ],
      [
        "Ġgoal",
        "s"
      ],
      [
        "Ġex",
        "c"
      ],
      [
        "Ġex",
        "trac"
      ],
      [
        "Ġme",
        "as"
      ],
      [
        "Ġme",
        "ans"
      ],
      [
        "ac",
        "t"
      ],
      [
        "Ġde",
        "tail"
      ],
      [
        "Ġconstruct",
        "ed"
      ],
      [
        "ĠM",
        "ach"
      ],
      [
        "eral",
        "s"
      ],
      [
        "aliz",
        "ed"
      ],
      [
        "ĠL",
        "earning"
      ],
      [
        "Ġfu",
        "ndament"
      ],
      [
        "Ġspecific",
        "ations"
      ],
      [
        "ĠPro",
        "cessing"
      ],
      [
        "erm",
        "ore"
      ],
      [
        "Ġsu",
        "b"
      ],
      [
        "Ġcomple",
        "te"
      ],
      [
        "Ġimp",
        "lement"
      ],
      [
        "Ġcorrespond",
        "ence"
      ],
      [
        "ffic",
        "iently"
      ],
      [
        "Ġpr",
        "im"
      ],
      [
        "Ġappro",
        "ach"
      ],
      [
        "Ġdesi",
        "gn"
      ],
      [
        "Ġchallen",
        "ge"
      ],
      [
        "ph",
        "erals"
      ],
      [
        "ĠO",
        "PV"
      ],
      [
        "Ġtechn",
        "ical"
      ],
      [
        "Ġaud",
        "ience"
      ],
      [
        "Ġperi",
        "pherals"
      ],
      [
        "Ġcli",
        "ent"
      ],
      [
        "urth",
        "ermore"
      ],
      [
        "Ġanal",
        "ysis"
      ],
      [
        "Ġenti",
        "re"
      ],
      [
        "Ġrevol",
        "ve"
      ],
      [
        "Ġsecon",
        "d"
      ],
      [
        "Ġpra",
        "gm"
      ],
      [
        "Ġoveral",
        "l"
      ],
      [
        "Ġgam",
        "es"
      ],
      [
        "Ġinteg",
        "r"
      ],
      [
        "Ġscaff",
        "old"
      ],
      [
        "ĠMach",
        "ine"
      ],
      [
        "ĠOPV",
        "L"
      ],
      [
        "B",
        "ased"
      ],
      [
        "F",
        "rom"
      ],
      [
        "N",
        "LP"
      ],
      [
        "T",
        "h"
      ],
      [
        "W",
        "h"
      ],
      [
        "a",
        "y"
      ],
      [
        "a",
        "pp"
      ],
      [
        "a",
        "ve"
      ],
      [
        "b",
        "lis"
      ],
      [
        "c",
        "le"
      ],
      [
        "c",
        "re"
      ],
      [
        "c",
        "us"
      ],
      [
        "e",
        "th"
      ],
      [
        "f",
        "ace"
      ],
      [
        "g",
        "o"
      ],
      [
        "g",
        "an"
      ],
      [
        "g",
        "ing"
      ],
      [
        "g",
        "ine"
      ],
      [
        "g",
        "round"
      ],
      [
        "h",
        "ould"
      ],
      [
        "i",
        "gh"
      ],
      [
        "i",
        "fes"
      ],
      [
        "i",
        "go"
      ],
      [
        "k",
        "en"
      ],
      [
        "l",
        "es"
      ],
      [
        "l",
        "ut"
      ],
      [
        "m",
        "in"
      ],
      [
        "p",
        "or"
      ],
      [
        "u",
        "tion"
      ],
      [
        "u",
        "gu"
      ],
      [
        "y",
        "cle"
      ],
      [
        "Ġ",
        "C"
      ],
      [
        "Ġ",
        "H"
      ],
      [
        "Ġ",
        "R"
      ],
      [
        "Ġ",
        "ev"
      ],
      [
        "Ġt",
        "a"
      ],
      [
        "Ġt",
        "as"
      ],
      [
        "Ġthe",
        "m"
      ],
      [
        "ti",
        "ve"
      ],
      [
        "er",
        "y"
      ],
      [
        "er",
        "tain"
      ],
      [
        "er",
        "pt"
      ],
      [
        "en",
        "s"
      ],
      [
        "en",
        "ti"
      ],
      [
        "en",
        "ces"
      ],
      [
        "Ġs",
        "ta"
      ],
      [
        "Ġs",
        "em"
      ],
      [
        "Ġs",
        "hould"
      ],
      [
        "Ġp",
        "ersonal"
      ],
      [
        "Ġc",
        "ould"
      ],
      [
        "Ġc",
        "ycle"
      ],
      [
        "Ġc",
        "ertain"
      ],
      [
        "Ġw",
        "e"
      ],
      [
        "Ġw",
        "ill"
      ],
      [
        "Ġo",
        "p"
      ],
      [
        "ar",
        "t"
      ],
      [
        "Ġin",
        "d"
      ],
      [
        "Ġin",
        "v"
      ],
      [
        "ic",
        "ate"
      ],
      [
        "Ġm",
        "ore"
      ],
      [
        "Ġm",
        "ust"
      ],
      [
        "Ġm",
        "ateri"
      ],
      [
        "Ġr",
        "igo"
      ],
      [
        "Ġpro",
        "v"
      ],
      [
        "Ġpro",
        "ve"
      ],
      [
        "ent",
        "ed"
      ],
      [
        "Ġf",
        "e"
      ],
      [
        "Ġf",
        "ir"
      ],
      [
        "Ġf",
        "oc"
      ],
      [
        "Ġf",
        "act"
      ],
      [
        "Ġb",
        "ut"
      ],
      [
        "Ġd",
        "ra"
      ],
      [
        "Ġd",
        "is"
      ],
      [
        "Ġd",
        "uring"
      ],
      [
        "Ġcon",
        "text"
      ],
      [
        "Ġcon",
        "cre"
      ],
      [
        "Ġu",
        "sed"
      ],
      [
        "Ġu",
        "nder"
      ],
      [
        "is",
        "tic"
      ],
      [
        "ment",
        "ary"
      ],
      [
        "re",
        "en"
      ],
      [
        "li",
        "ft"
      ],
      [
        "se",
        "qu"
      ],
      [
        "Ġres",
        "ources"
      ],
      [
        "Ġac",
        "tu"
      ],
      [
        "rou",
        "s"
      ],
      [
        "Ġre",
        "g"
      ],
      [
        "Ġprog",
        "res"
      ],
      [
        "Ġint",
        "r"
      ],
      [
        "Ġint",
        "elligence"
      ],
      [
        "Ġh",
        "ave"
      ],
      [
        "id",
        "e"
      ],
      [
        "iz",
        "e"
      ],
      [
        "Ġsc",
        "reen"
      ],
      [
        "Ġex",
        "per"
      ],
      [
        "Ġspeci",
        "fied"
      ],
      [
        "Ġme",
        "et"
      ],
      [
        "Ġn",
        "on"
      ],
      [
        "Ġde",
        "ter"
      ],
      [
        "Ġde",
        "fin"
      ],
      [
        "jec",
        "tive"
      ],
      [
        "ĠF",
        "or"
      ],
      [
        "ĠF",
        "lut"
      ],
      [
        "ĠM",
        "L"
      ],
      [
        "Ġen",
        "c"
      ],
      [
        "Ġen",
        "gine"
      ],
      [
        "aliz",
        "e"
      ],
      [
        "aliz",
        "ation"
      ],
      [
        "Ġob",
        "tain"
      ],
      [
        "Ġob",
        "ser"
      ],
      [
        "Ġob",
        "jective"
      ],
      [
        "Ġachiev",
        "able"
      ],
      [
        "war",
        "ds"
      ],
      [
        "Ġal",
        "lo"
      ],
      [
        "Ġal",
        "low"
      ],
      [
        "Ġman",
        "ag"
      ],
      [
        "Ġman",
        "ifes"
      ],
      [
        "Ġno",
        "tion"
      ],
      [
        "Ġback",
        "ground"
      ],
      [
        "Ġinteres",
        "ts"
      ],
      [
        "Ġjusti",
        "fied"
      ],
      [
        "Ġy",
        "et"
      ],
      [
        "Ġtes",
        "ting"
      ],
      [
        "Ġup",
        "lift"
      ],
      [
        "Ġquestion",
        "s"
      ],
      [
        "Ġsystem",
        "atic"
      ],
      [
        "Ġstruct",
        "ure"
      ],
      [
        "Ġele",
        "ments"
      ],
      [
        "Ġsi",
        "x"
      ],
      [
        "Ġori",
        "gin"
      ],
      [
        "Ġdeline",
        "ated"
      ],
      [
        "Ġconduct",
        "ed"
      ],
      [
        "Ġreal",
        "istic"
      ],
      [
        "Ġexc",
        "erpt"
      ],
      [
        "Ġextrac",
        "ted"
      ],
      [
        "Ġmeas",
        "ured"
      ],
      [
        "Ġdetail",
        "s"
      ],
      [
        "Ġsecond",
        "ary"
      ],
      [
        "Ġpragm",
        "atic"
      ],
      [
        "Th",
        "e"
      ],
      [
        "Wh",
        "en"
      ],
      [
        "Ġtas",
        "k"
      ],
      [
        "Ġsta",
        "nd"
      ],
      [
        "Ġrigo",
        "rous"
      ],
      [
        "Ġfir",
        "st"
      ],
      [
        "Ġfact",
        "or"
      ],
      [
        "Ġdra",
        "ft"
      ],
      [
        "Ġdis",
        "cus"
      ],
      [
        "Ġconcre",
        "te"
      ],
      [
        "sequ",
        "ently"
      ],
      [
        "Ġprogres",
        "s"
      ],
      [
        "Ġmeet",
        "ing"
      ],
      [
        "ĠFlut",
        "ter"
      ],
      [
        "Ġobser",
        "ved"
      ],
      [
        "Ġmanag",
        "ed"
      ],
      [
        ")",
        "."
      ],
      [
        "D",
        "K"
      ],
      [
        "E",
        "V"
      ],
      [
        "I",
        "n"
      ],
      [
        "V",
        "oice"
      ],
      [
        "W",
        "ith"
      ],
      [
        "a",
        "v"
      ],
      [
        "b",
        "ased"
      ],
      [
        "c",
        "t"
      ],
      [
        "c",
        "y"
      ],
      [
        "c",
        "in"
      ],
      [
        "d",
        "d"
      ],
      [
        "d",
        "e"
      ],
      [
        "d",
        "o"
      ],
      [
        "d",
        "ing"
      ],
      [
        "d",
        "ay"
      ],
      [
        "e",
        "al"
      ],
      [
        "e",
        "mp"
      ],
      [
        "e",
        "ech"
      ],
      [
        "g",
        "es"
      ],
      [
        "g",
        "ic"
      ],
      [
        "g",
        "or"
      ],
      [
        "g",
        "th"
      ],
      [
        "g",
        "re"
      ],
      [
        "g",
        "ram"
      ],
      [
        "h",
        "ed"
      ],
      [
        "i",
        "a"
      ],
      [
        "i",
        "el"
      ],
      [
        "i",
        "ld"
      ],
      [
        "i",
        "tic"
      ],
      [
        "i",
        "um"
      ],
      [
        "j",
        "or"
      ],
      [
        "k",
        "ing"
      ],
      [
        "l",
        "ed"
      ],
      [
        "l",
        "ity"
      ],
      [
        "l",
        "ud"
      ],
      [
        "m",
        "m"
      ],
      [
        "n",
        "s"
      ],
      [
        "n",
        "th"
      ],
      [
        "n",
        "oth"
      ],
      [
        "o",
        "mp"
      ],
      [
        "p",
        "o"
      ],
      [
        "p",
        "ar"
      ],
      [
        "p",
        "eri"
      ],
      [
        "p",
        "ri"
      ],
      [
        "r",
        "tic"
      ],
      [
        "s",
        "s"
      ],
      [
        "s",
        "ic"
      ],
      [
        "s",
        "pec"
      ],
      [
        "t",
        "o"
      ],
      [
        "t",
        "on"
      ],
      [
        "t",
        "end"
      ],
      [
        "u",
        "b"
      ],
      [
        "u",
        "e"
      ],
      [
        "u",
        "al"
      ],
      [
        "u",
        "str"
      ],
      [
        "u",
        "ary"
      ],
      [
        "u",
        "rac"
      ],
      [
        "u",
        "gin"
      ],
      [
        "u",
        "ild"
      ],
      [
        "Ġ",
        "k"
      ],
      [
        "Ġ",
        "es"
      ],
      [
        "Ġ",
        "li"
      ],
      [
        "Ġ",
        "im"
      ],
      [
        "Ġ",
        "evalu"
      ],
      [
        "Ġ",
        "To"
      ],
      [
        "Ġ",
        "ke"
      ],
      [
        "Ġ",
        "The"
      ],
      [
        "Ġa",
        "b"
      ],
      [
        "Ġa",
        "d"
      ],
      [
        "Ġa",
        "im"
      ],
      [
        "Ġa",
        "ff"
      ],
      [
        "Ġa",
        "ut"
      ],
      [
        "Ġa",
        "rtificial"
      ],
      [
        "Ġa",
        "bou"
      ],
      [
        "Ġa",
        "rtic"
      ],
      [
        "in",
        "d"
      ],
      [
        "in",
        "ant"
      ],
      [
        "in",
        "ion"
      ],
      [
        "Ġthe",
        "ir"
      ],
      [
        "ti",
        "es"
      ],
      [
        "er",
        "ce"
      ],
      [
        "en",
        "o"
      ],
      [
        "en",
        "se"
      ],
      [
        "en",
        "tic"
      ],
      [
        "en",
        "om"
      ],
      [
        "en",
        "gth"
      ],
      [
        "Ġs",
        "et"
      ],
      [
        "Ġs",
        "om"
      ],
      [
        "Ġp",
        "ur"
      ],
      [
        "Ġp",
        "res"
      ],
      [
        "Ġp",
        "erce"
      ],
      [
        "ro",
        "gram"
      ],
      [
        "Ġo",
        "per"
      ],
      [
        "al",
        "id"
      ],
      [
        "ed",
        "om"
      ],
      [
        "ed",
        "ium"
      ],
      [
        "it",
        "e"
      ],
      [
        "it",
        "ab"
      ],
      [
        "nd",
        "ari"
      ],
      [
        "uc",
        "ed"
      ],
      [
        "uc",
        "ial"
      ],
      [
        "an",
        "ti"
      ],
      [
        "an",
        "tic"
      ],
      [
        "an",
        "uary"
      ],
      [
        "el",
        "ess"
      ],
      [
        "or",
        "t"
      ],
      [
        "or",
        "por"
      ],
      [
        "Ġto",
        "wards"
      ],
      [
        "Ġm",
        "edium"
      ],
      [
        "Ġf",
        "r"
      ],
      [
        "Ġf",
        "as"
      ],
      [
        "Ġf",
        "ul"
      ],
      [
        "Ġf",
        "urthermore"
      ],
      [
        "ou",
        "s"
      ],
      [
        "st",
        "and"
      ],
      [
        "st",
        "anti"
      ],
      [
        "Ġb",
        "uild"
      ],
      [
        "Ġd",
        "eno"
      ],
      [
        "ev",
        "er"
      ],
      [
        "mp",
        "le"
      ],
      [
        "mp",
        "lo"
      ],
      [
        "ith",
        "m"
      ],
      [
        "as",
        "i"
      ],
      [
        "as",
        "sembly"
      ],
      [
        "Ġcon",
        "d"
      ],
      [
        "Ġcon",
        "f"
      ],
      [
        "Ġcon",
        "ven"
      ],
      [
        "is",
        "e"
      ],
      [
        "is",
        "ual"
      ],
      [
        "Ġco",
        "mm"
      ],
      [
        "ĠA",
        "ugu"
      ],
      [
        "ĠA",
        "EV"
      ],
      [
        "ĠA",
        "dd"
      ],
      [
        "li",
        "gh"
      ],
      [
        "Ġe",
        "ach"
      ],
      [
        "Ġe",
        "fficiently"
      ],
      [
        "Ġe",
        "mplo"
      ],
      [
        "Ġcomp",
        "art"
      ],
      [
        "ter",
        "face"
      ],
      [
        "il",
        "st"
      ],
      [
        "Ġbe",
        "en"
      ],
      [
        "âĢ",
        "Ŀ"
      ],
      [
        "Ġv",
        "ers"
      ],
      [
        "Ġv",
        "alu"
      ],
      [
        "Ġv",
        "ery"
      ],
      [
        "Ġv",
        "ide"
      ],
      [
        "Ġv",
        "ia"
      ],
      [
        "Ġv",
        "alid"
      ],
      [
        "Ġv",
        "isual"
      ],
      [
        "Ġapp",
        "eal"
      ],
      [
        "Ġpl",
        "ugin"
      ],
      [
        "Ġwh",
        "at"
      ],
      [
        "Ġwh",
        "om"
      ],
      [
        "Ġwh",
        "ilst"
      ],
      [
        "ta",
        "ble"
      ],
      [
        "ta",
        "blis"
      ],
      [
        "ta",
        "ken"
      ],
      [
        "Ġre",
        "f"
      ],
      [
        "Ġcr",
        "itic"
      ],
      [
        "Ġcr",
        "ucial"
      ],
      [
        "Ġint",
        "end"
      ],
      [
        "Ġh",
        "ence"
      ],
      [
        "Ġh",
        "igh"
      ],
      [
        "ĠâĢ",
        "ľ"
      ],
      [
        "Ġfor",
        "m"
      ],
      [
        "id",
        "ered"
      ],
      [
        "iz",
        "ed"
      ],
      [
        "ow",
        "n"
      ],
      [
        "Ġle",
        "vel"
      ],
      [
        "Ġsc",
        "r"
      ],
      [
        "Ġsc",
        "op"
      ],
      [
        "ul",
        "ty"
      ],
      [
        "Ġex",
        "emp"
      ],
      [
        "Ġspeci",
        "fy"
      ],
      [
        "Ġme",
        "th"
      ],
      [
        "Ġde",
        "gre"
      ],
      [
        "Ġaction",
        "s"
      ],
      [
        "form",
        "ing"
      ],
      [
        "ĠF",
        "urthermore"
      ],
      [
        "ĠM",
        "o"
      ],
      [
        "ff",
        "er"
      ],
      [
        "si",
        "on"
      ],
      [
        "Ġst",
        "ate"
      ],
      [
        "Ġdev",
        "ice"
      ],
      [
        "Ġon",
        "es"
      ],
      [
        "Ġon",
        "ly"
      ],
      [
        "Ġspecific",
        "ally"
      ],
      [
        "ol",
        "ution"
      ],
      [
        "Ġph",
        "enom"
      ],
      [
        "Ġor",
        "gan"
      ],
      [
        "Ġinter",
        "n"
      ],
      [
        "ition",
        "ally"
      ],
      [
        "Ġal",
        "gor"
      ],
      [
        "tiv",
        "ity"
      ],
      [
        "Ġsu",
        "fficiently"
      ],
      [
        "Ġacc",
        "or"
      ],
      [
        "Ġacc",
        "ur"
      ],
      [
        "Ġacc",
        "oun"
      ],
      [
        "Ġacc",
        "urac"
      ],
      [
        "Ġrequi",
        "res"
      ],
      [
        "lo",
        "gic"
      ],
      [
        "ari",
        "ly"
      ],
      [
        "Ġma",
        "jor"
      ],
      [
        "Ġcomple",
        "mentary"
      ],
      [
        "Ġimp",
        "ort"
      ],
      [
        "Ġutiliz",
        "e"
      ],
      [
        "Ġsy",
        "nth"
      ],
      [
        "Ġno",
        "vel"
      ],
      [
        "Ġstr",
        "ength"
      ],
      [
        "To",
        "day"
      ],
      [
        "ffic",
        "ulty"
      ],
      [
        "ĠS",
        "DK"
      ],
      [
        "Ġpr",
        "edom"
      ],
      [
        "Ġiniti",
        "alized"
      ],
      [
        "Ġback",
        "end"
      ],
      [
        "Ġappro",
        "pri"
      ],
      [
        "Ġinteres",
        "ted"
      ],
      [
        "Ġjusti",
        "fy"
      ],
      [
        "ag",
        "es"
      ],
      [
        "ĠB",
        "y"
      ],
      [
        "ĠU",
        "I"
      ],
      [
        "Ġpo",
        "in"
      ],
      [
        "oun",
        "ter"
      ],
      [
        "Ġdi",
        "ffer"
      ],
      [
        "Ġdi",
        "fficulty"
      ],
      [
        "Ġsystem",
        "s"
      ],
      [
        "Ġstruct",
        "ured"
      ],
      [
        "Ġparticular",
        "ly"
      ],
      [
        "and",
        "s"
      ],
      [
        "um",
        "an"
      ],
      [
        "ĠD",
        "ue"
      ],
      [
        "ĠJ",
        "anuary"
      ],
      [
        "Ġaesthetic",
        "s"
      ],
      [
        "Ġaesthetic",
        "al"
      ],
      [
        "Ġattain",
        "ed"
      ],
      [
        "Ġauth",
        "or"
      ],
      [
        "Ġauth",
        "entic"
      ],
      [
        "Ġse",
        "qu"
      ],
      [
        "Ġse",
        "par"
      ],
      [
        "Ġsp",
        "eech"
      ],
      [
        "Ġcl",
        "as"
      ],
      [
        "Ġcl",
        "ari"
      ],
      [
        "Ġinc",
        "lud"
      ],
      [
        "Ġinc",
        "orpor"
      ],
      [
        "Ġcons",
        "idered"
      ],
      [
        "Ġgather",
        "ed"
      ],
      [
        "Ġfundament",
        "al"
      ],
      [
        "Ġprim",
        "ary"
      ],
      [
        "Ġprim",
        "arily"
      ],
      [
        "Ġapproach",
        "ed"
      ],
      [
        "Ġintegr",
        "ate"
      ],
      [
        "Ġscaffold",
        "ing"
      ],
      [
        "eth",
        "eless"
      ],
      [
        "ĠR",
        "ecognition"
      ],
      [
        "Ġta",
        "ke"
      ],
      [
        "Ġsem",
        "antic"
      ],
      [
        "Ġop",
        "inion"
      ],
      [
        "Ġind",
        "icate"
      ],
      [
        "Ġmateri",
        "als"
      ],
      [
        "Ġreg",
        "ards"
      ],
      [
        "Ġexper",
        "t"
      ],
      [
        "Ġnon",
        "etheless"
      ],
      [
        "Ġdeter",
        "min"
      ],
      [
        "Ġenc",
        "ounter"
      ],
      [
        "Ġengine",
        "er"
      ],
      [
        "Ġallo",
        "t"
      ],
      [
        "Ġallow",
        "ed"
      ],
      [
        "Ġmanifes",
        "table"
      ],
      [
        "Ġuplift",
        "ed"
      ],
      [
        "Ġsystematic",
        "ally"
      ],
      [
        "Ġstand",
        "ards"
      ],
      [
        "Ġfactor",
        "s"
      ],
      [
        "Ġdraft",
        "ing"
      ],
      [
        "Ġdiscus",
        "sed"
      ],
      [
        "iel",
        "d"
      ],
      [
        "noth",
        "er"
      ],
      [
        "Ġes",
        "tablis"
      ],
      [
        "Ġevalu",
        "ate"
      ],
      [
        "Ġke",
        "y"
      ],
      [
        "Ġaut",
        "om"
      ],
      [
        "Ġabou",
        "t"
      ],
      [
        "Ġpur",
        "po"
      ],
      [
        "Ġperce",
        "i"
      ],
      [
        "itab",
        "ly"
      ],
      [
        "ndari",
        "es"
      ],
      [
        "Ġfas",
        "cin"
      ],
      [
        "Ġful",
        "f"
      ],
      [
        "stand",
        "ing"
      ],
      [
        "Ġcomm",
        "ands"
      ],
      [
        "ĠAugu",
        "st"
      ],
      [
        "ĠAEV",
        "A"
      ],
      [
        "ĠAdd",
        "itionally"
      ],
      [
        "Ġemplo",
        "y"
      ],
      [
        "Ġvide",
        "o"
      ],
      [
        "Ġhigh",
        "ligh"
      ],
      [
        "Ġscop",
        "e"
      ],
      [
        "Ġdegre",
        "e"
      ],
      [
        "Ġphenom",
        "en"
      ],
      [
        "Ġalgor",
        "ithm"
      ],
      [
        "Ġaccoun",
        "t"
      ],
      [
        "Ġaccurac",
        "y"
      ],
      [
        "Ġsynth",
        "es"
      ],
      [
        "Ġpredom",
        "inant"
      ],
      [
        "Ġinclud",
        "ing"
      ],
      [
        "Ġsemantic",
        "s"
      ]
    ]
  }
}