{
  "version": "1.0",
  "truncation": null,
  "padding": null,
  "added_tokens": [
    {
      "id": 0,
      "content": "<pad>",
      "single_word": false,
      "lstrip": false,
      "rstrip": false,
      "normalized": false,
      "special": true
    },
    {
      "id": 1,
      "content": "<unk>",
      "single_word": false,
      "lstrip": false,
      "rstrip": false,
      "normalized": false,
      "special": true
    },
    {
      "id": 2,
      "content": "<bos>",
      "single_word": false,
      "lstrip": false,
      "rstrip": false,
      "normalized": false,
      "special": true
    },
    {
      "id": 3,
      "content": "<eos>",
      "single_word": false,
      "lstrip": false,
      "rstrip": false,
      "normalized": false,
      "special": true
    }
  ],
  "normalizer": null,
  "pre_tokenizer": {
    "type": "ByteLevel",
    "add_prefix_space": false,
    "trim_offsets": true,
    "use_regex": true
  },
  "post_processor": null,
  "decoder": {
    "type": "ByteLevel",
    "add_prefix_space": true,
    "trim_offsets": true,
    "use_regex": true
  },
  "model": {
    "type": "BPE",
    "dropout": null,
    "unk_token": "<unk>",
    "continuing_subword_prefix": null,
    "end_of_word_suffix": null,
    "fuse_unk": false,
    "byte_fallback": false,
    "ignore_merges": false,
    "vocab": {
      "<pad>": 0,
      "<unk>": 1,
      "<bos>": 2,
      "<eos>": 3,
      "!": 4,
      "#": 5,
      "$": 6,
      "%": 7,
      "&": 8,
      "'": 9,
      "(": 10,
      ")": 11,
      "*": 12,
      "+": 13,
      ",": 14,
      "-": 15,
      ".": 16,
      "/": 17,
      "0": 18,
      "1": 19,
      "2": 20,
      "3": 21,
      "4": 22,
      "5": 23,
      "6": 24,
      "7": 25,
      "8": 26,
      "9": 27,
      ":": 28,
      ";": 29,
      "?": 30,
      "A": 31,
      "B": 32,
      "C": 33,
      "D": 34,
      "E": 35,
      "F": 36,
      "G": 37,
      "H": 38,
      "I": 39,
      "J": 40,
      "K": 41,
      "L": 42,
      "M": 43,
      "N": 44,
      "O": 45,
      "P": 46,
      "Q": 47,
      "R": 48,
      "S": 49,
      "T": 50,
      "U": 51,
      "V": 52,
      "W": 53,
      "X": 54,
      "Y": 55,
      "Z": 56,
      "[": 57,
      "]": 58,
      "^": 59,
      "_": 60,
      "a": 61,
      "b": 62,
      "c": 63,
      "d": 64,
      "e": 65,
      "f": 66,
      "g": 67,
      "h": 68,
      "i": 69,
      "j": 70,
      "k": 71,
      "l": 72,
      "m": 73,
      "n": 74,
      "o": 75,
      "p": 76,
      "q": 77,
      "r": 78,
      "s": 79,
      "t": 80,
      "u": 81,
      "v": 82,
      "w": 83,
      "x": 84,
      "y": 85,
      "z": 86,
      "{": 87,
      "}": 88,
      "¢": 89,
      "£": 90,
      "¦": 91,
      "¨": 92,
      "©": 93,
      "ª": 94,
      "´": 95,
      "·": 96,
      "¹": 97,
      "½": 98,
      "Â": 99,
      "Ã": 100,
      "Å": 101,
      "â": 102,
      "Ċ": 103,
      "č": 104,
      "Ġ": 105,
      "Ģ": 106,
      "Ħ": 107,
      "ĵ": 108,
      "Ķ": 109,
      "ĺ": 110,
      "Ļ": 111,
      "ľ": 112,
      "Ŀ": 113,
      "ł": 114,
      "Ġt": 115,
      "he": 116,
      "čĊ": 117,
      "Ġa": 118,
      "in": 119,
      "Ġw": 120,
      "Ġs": 121,
      "re": 122,
      "Ġthe": 123,
      "Ġo": 124,
      "ha": 125,
      "ou": 126,
      "nd": 127,
      "âĢ": 128,
      "er": 129,
      "Ġm": 130,
      "ed": 131,
      "it": 132,
      "is": 133,
      "Ġb": 134,
      "en": 135,
      "on": 136,
      "Ġc": 137,
      "Ġf": 138,
      "Ġto": 139,
      "Ġof": 140,
      "ing": 141,
      "Ġand": 142,
      "Ġd": 143,
      "or": 144,
      "es": 145,
      "ĠI": 146,
      "as": 147,
      "ll": 148,
      "ar": 149,
      "at": 150,
      "Ġin": 151,
      "ĠĠ": 152,
      "Ġhe": 153,
      "Ġp": 154,
      "an": 155,
      "Ġn": 156,
      "Ġha": 157,
      "Ġh": 158,
      "le": 159,
      "âĢľ": 160,
      "om": 161,
      "hat": 162,
      "Ġbe": 163,
      "âĢĿ": 164,
      "ot": 165,
      "Ġl": 166,
      "ic": 167,
      "Ġy": 168,
      "ut": 169,
      "ve": 170,
      "Ġe": 171,
      "ly": 172,
      "st": 173,
      "Ġyou": 174,
      "ow": 175,
      "ion": 176,
      "se": 177,
      "Ġwas": 178,
      "ent": 179,
      "ld": 180,
      "id": 181,
      "Ġthat": 182,
      "ver": 183,
      "Ġg": 184,
      "im": 185,
      "Ġre": 186,
      "gh": 187,
      "ce": 188,
      "et": 189,
      "Ġit": 190,
      "Ġth": 191,
      "ith": 192,
      "Ġwh": 193,
      "Ġmy": 194,
      "Ġher": 195,
      "Ġu": 196,
      "ct": 197,
      "Ġas": 198,
      "ĠĠĠĠ": 199,
      "Ġon": 200,
      "ay": 201,
      "Ġwith": 202,
      "Ġnot": 203,
      "her": 204,
      "Ġfor": 205,
      "ur": 206,
      "ir": 207,
      "ould": 208,
      "al": 209,
      "ght": 210,
      "ro": 211,
      "Ġhis": 212,
      "Ġhad": 213,
      "âĢĻ": 214,
      "ri": 215,
      "ad": 216,
      "Ġwe": 217,
      "Ġan": 218,
      ".âĢĿ": 219,
      "Ġme": 220,
      "ĠM": 221,
      "Ġis": 222,
      "ter": 223,
      "Ġat": 224,
      "ab": 225,
      "Ġshe": 226,
      "li": 227,
      "ch": 228,
      "Ġsa": 229,
      "Ġhave": 230,
      "ain": 231,
      "ich": 232,
      "ill": 233,
      "ess": 234,
      "red": 235,
      "Ġso": 236,
      "The": 237,
      "oo": 238,
      "ect": 239,
      "Ġsu": 240,
      "Ġst": 241,
      "ĠH": 242,
      "Ġse": 243,
      "ation": 244,
      "ĠâĢľ": 245,
      "Ġwhich": 246,
      "pp": 247,
      "our": 248,
      "am": 249,
      "Ġbut": 250,
      "if": 251,
      "very": 252,
      "rom": 253,
      "ke": 254,
      "ore": 255,
      "Ġcon": 256,
      "Ġde": 257,
      "ge": 258,
      "Ġhim": 259,
      "and": 260,
      "Ġby": 261,
      "qu": 262,
      "ĠA": 263,
      "Ġall": 264,
      "th": 265,
      "ĠB": 266,
      "ust": 267,
      "ome": 268,
      "all": 269,
      "Ġsaid": 270,
      "lf": 271,
      "ol": 272,
      ",âĢĿ": 273,
      "Ġex": 274,
      "ĠS": 275,
      "il": 276,
      "res": 277,
      "Ġfrom": 278,
      "the": 279,
      "Ġthis": 280,
      "ĠMr": 281,
      "ra": 282,
      "Ġdo": 283,
      "est": 284,
      "Ġfe": 285,
      "Ġwhe": 286,
      "Ġne": 287,
      "Ġup": 288,
      "ard": 289,
      "Ġwere": 290,
      "Ġsh": 291,
      "Ġk": 292,
      "to": 293,
      "ck": 294,
      "ul": 295,
      "ĠĠĠĠĠĠĠĠ": 296,
      "em": 297,
      "ight": 298,
      "Ġyour": 299,
      "ind": 300,
      "ĠW": 301,
      "ĠThe": 302,
      "self": 303,
      "ĠL": 304,
      "Ġv": 305,
      "Ġno": 306,
      "Ġbeen": 307,
      "Ġor": 308,
      "Ġle": 309,
      "Ġman": 310,
      "us": 311,
      "os": 312,
      "one": 313,
      "un": 314,
      "ice": 315,
      "Ġwho": 316,
      "pe": 317,
      "itt": 318,
      "ate": 319,
      "able": 320,
      "ous": 321,
      "Ġcould": 322,
      "Ġvery": 323,
      "ound": 324,
      "han": 325,
      "ist": 326,
      "Ġr": 327,
      "Ġwould": 328,
      "ĠC": 329,
      "ant": 330,
      "eth": 331,
      "art": 332,
      "ive": 333,
      "?âĢĿ": 334,
      "ure": 335,
      "out": 336,
      "Ġun": 337,
      "Ġare": 338,
      "Ġcom": 339,
      "Ġkn": 340,
      "Ġam": 341,
      "Ġwor": 342,
      "ers": 343,
      "Ġal": 344,
      "ong": 345,
      "ved": 346,
      "Ġany": 347,
      "Ġwhen": 348,
      "Ġwill": 349,
      "ort": 350,
      "ast": 351,
      "ĠD": 352,
      "Ġthey": 353,
      "Ġwhat": 354,
      "Ġone": 355,
      "ĠE": 356,
      "ough": 357,
      "end": 358,
      "Ġag": 359,
      "Ġthere": 360,
      "ook": 361,
      "Ġab": 362,
      "ag": 363,
      "ood": 364,
      "ther": 365,
      "reat": 366,
      "ven": 367,
      "ance": 368,
      "ak": 369,
      "Ġthem": 370,
      "ost": 371,
      "ity": 372,
      "ather": 373,
      "ence": 374,
      "la": 375,
      "Ġpro": 376,
      "own": 377,
      "um": 378,
      "liz": 379,
      "Ġcan": 380,
      "Ġaf": 381,
      "ĠG": 382,
      "cc": 383,
      "fore": 384,
      "hed": 385,
      "abeth": 386,
      "lizabeth": 387,
      "ide": 388,
      "el": 389,
      "ber": 390,
      "Ġli": 391,
      "ry": 392,
      "ject": 393,
      "ĠP": 394,
      "Ġj": 395,
      "nt": 396,
      "ine": 397,
      "Ġ_": 398,
      "ink": 399,
      "Ġmore": 400,
      "Ġim": 401,
      "Ġqu": 402,
      "Ġtheir": 403,
      "pt": 404,
      "urn": 405,
      "You": 406,
      "ame": 407,
      "Ġif": 408,
      "de": 409,
      "ond": 410,
      "Ġout": 411,
      "ĠT": 412,
      "ittle": 413,
      "we": 414,
      "ress": 415,
      "age": 416,
      "ment": 417,
      "uch": 418,
      "Ġthan": 419,
      "Ġsome": 420,
      "Ġknow": 421,
      "te": 422,
      "Ġdis": 423,
      "Ġupon": 424,
      "cy": 425,
      "op": 426,
      "Ġsha": 427,
      "au": 428,
      "wn": 429,
      "ite": 430,
      "Ġshould": 431,
      "Ġad": 432,
      "Ġother": 433,
      "ake": 434,
      "ĠHe": 435,
      "ish": 436,
      "ime": 437,
      "ear": 438,
      "ought": 439,
      "way": 440,
      "Ġen": 441,
      "Ġhow": 442,
      "Ġsee": 443,
      "of": 444,
      "ire": 445,
      "ig": 446,
      "oll": 447,
      "âĢĶ": 448,
      "for": 449,
      "are": 450,
      "Ġlittle": 451,
      "ble": 452,
      "ked": 453,
      "Ġmust": 454,
      "Ġsp": 455,
      "Ġinto": 456,
      "Ġsuch": 457,
      "Ġhas": 458,
      "iss": 459,
      "Ġus": 460,
      "Ġdid": 461,
      "ass": 462,
      "lo": 463,
      "other": 464,
      "ĠIt": 465,
      "ally": 466,
      "âĢĺ": 467,
      "ies": 468,
      "Ġthen": 469,
      "Ġnow": 470,
      "be": 471,
      "ert": 472,
      "Ġfa": 473,
      "ĠElizabeth": 474,
      "ĠF": 475,
      "Ġexp": 476,
      "ep": 477,
      "Ġapp": 478,
      "--": 479,
      "ady": 480,
      "!âĢĿ": 481,
      "Ġmay": 482,
      "Ġbefore": 483,
      "Ġper": 484,
      "ness": 485,
      "Ġmuch": 486,
      "ings": 487,
      "Ġrem": 488,
      "Ġro": 489,
      "Ġcomp": 490,
      "ie": 491,
      "ever": 492,
      "Ġonly": 493,
      "ving": 494,
      "ions": 495,
      "Ġagain": 496,
      "ily": 497,
      "ose": 498,
      "ng": 499,
      "me": 500,
      "Ġthink": 501,
      "led": 502,
      "fe": 503,
      "Ġlook": 504,
      "Ġtime": 505,
      "ree": 506,
      "ount": 507,
      "mes": 508,
      "Ġob": 509,
      "ru": 510,
      "ĠĠĠĠĠĠĠĠĠĠĠĠĠĠĠĠ": 511,
      "ove": 512,
      "Ġover": 513,
      "ci": 514,
      "od": 515,
      "ried": 516,
      "olmes": 517,
      "ated": 518,
      "Ġar": 519,
      "his": 520,
      "right": 521,
      "ary": 522,
      "Ġevery": 523,
      "ade": 524,
      "Ġmight": 525,
      "Ġtoo": 526,
      "Ġday": 527,
      "ĠBut": 528,
      "Ġpart": 529,
      "ell": 530,
      "Ġgo": 531,
      "Ġtw": 532,
      "ĠJ": 533,
      "fect": 534,
      "that": 535,
      "ced": 536,
      "hing": 537,
      "Ġdown": 538,
      "arcy": 539,
      "Ġshall": 540,
      "Ġown": 541,
      "riend": 542,
      "not": 543,
      "irst": 544,
      "ise": 545,
      "Ġbr": 546,
      "ouse": 547,
      "Ġabout": 548,
      "lice": 549,
      "ick": 550,
      "Ġour": 551,
      "ĠHolmes": 552,
      "Ġdes": 553,
      "Ġwork": 554,
      "Ġafter": 555,
      "ĠO": 556,
      "Ġimp": 557,
      "oss": 558,
      "ful": 559,
      "tter": 560,
      "ward": 561,
      "ley": 562,
      "Ġatt": 563,
      "ne": 564,
      "Ġsay": 565,
      "ning": 566,
      "Ġlike": 567,
      "ĠDarcy": 568,
      "Ġoff": 569,
      "ister": 570,
      "Ġnever": 571,
      "ran": 572,
      "Ġthought": 573,
      "Ġgreat": 574,
      "ĠShe": 575,
      "ea": 576,
      "ark": 577,
      "leas": 578,
      "uten": 579,
      "ious": 580,
      "hi": 581,
      "ps": 582,
      "berg": 583,
      "utenberg": 584,
      "per": 585,
      "enn": 586,
      "Ġhand": 587,
      "con": 588,
      "ret": 589,
      "Ġent": 590,
      "Ġrep": 591,
      "ud": 592,
      "Ġmost": 593,
      "Ġfriend": 594,
      "Ġcha": 595,
      "int": 596,
      "ave": 597,
      "ue": 598,
      "Ġfirst": 599,
      "Ġits": 600,
      "ĠN": 601,
      "so": 602,
      "sp": 603,
      "Ġhapp": 604,
      "nder": 605,
      "Ġeven": 606,
      "ĠMiss": 607,
      "ened": 608,
      "Ġlong": 609,
      "Ġpo": 610,
      "Ġcont": 611,
      "Ġwell": 612,
      "ane": 613,
      "ife": 614,
      "ennet": 615,
      "ĠYou": 616,
      "hen": 617,
      "ack": 618,
      "Ġgood": 619,
      "but": 620,
      "ĠAlice": 621,
      "It": 622,
      "roject": 623,
      "Ġgr": 624,
      "ĠR": 625,
      "ĠMrs": 626,
      "Ġret": 627,
      "Ġsister": 628,
      "Ġpass": 629,
      "ac": 630,
      "Ġacc": 631,
      "Ġsoon": 632,
      "ible": 633,
      "Ġsm": 634,
      "Ġfeel": 635,
      "ach": 636,
      "atter": 637,
      "ves": 638,
      "ations": 639,
      "Ġsc": 640,
      "less": 641,
      "Ġtwo": 642,
      "Ġey": 643,
      "lie": 644,
      "ull": 645,
      "Ġfather": 646,
      "ingley": 647,
      "Ġcons": 648,
      "ĠBennet": 649,
      "Ġmade": 650,
      "Ġbeg": 651,
      "iness": 652,
      "ĠĠĠ": 653,
      "man": 654,
      "Ġop": 655,
      "Ġbeing": 656,
      "Ġcame": 657,
      "ile": 658,
      "ied": 659,
      "Ġherself": 660,
      "Ġdear": 661,
      "ertain": 662,
      "Ġroom": 663,
      "com": 664,
      "cl": 665,
      "med": 666,
      "Ġway": 667,
      "Ġmar": 668,
      "Ġwithout": 669,
      "Ġpr": 670,
      "Ġaway": 671,
      "Ġmake": 672,
      "Ġseem": 673,
      "Ġpre": 674,
      "Ġend": 675,
      "Ġtr": 676,
      "ĠProject": 677,
      "Ġpleas": 678,
      "old": 679,
      "Ġever": 680,
      "Ġfound": 681,
      "alk": 682,
      "Ġjust": 683,
      "Ġspe": 684,
      "ner": 685,
      "Ġmyself": 686,
      "ins": 687,
      "ĠGutenberg": 688,
      "Ġyoung": 689,
      "thing": 690,
      "Ġsaw": 691,
      "Ġunder": 692,
      "wh": 693,
      "ĠSt": 694,
      "Ġhouse": 695,
      "Ġnothing": 696,
      "ens": 697,
      "Ġdist": 698,
      "Ġcome": 699,
      "ged": 700,
      "ĠBingley": 701,
      "âĢľâĢĺ": 702,
      "light": 703,
      "ign": 704,
      "Ġlast": 705,
      "Ġheard": 706,
      "ds": 707,
      "Ġwr": 708,
      "ited": 709,
      "Ġwhere": 710,
      "Ġpa": 711,
      "ft": 712,
      "you": 713,
      "ined": 714,
      "urned": 715,
      "Ġres": 716,
      "ff": 717,
      "Ġcl": 718,
      "Ġpl": 719,
      "Ġthese": 720,
      "Ġpla": 721,
      "was": 722,
      "lect": 723,
      "Ġthr": 724,
      "ces": 725,
      "Ġac": 726,
      "ase": 727,
      "Ġyet": 728,
      "ĠJane": 729,
      "oy": 730,
      "ope": 731,
      "hes": 732,
      "Ġpres": 733,
      "Ġthough": 734,
      "ty": 735,
      "ia": 736,
      "ham": 737,
      "ished": 738,
      "ath": 739,
      "Ġbec": 740,
      "ery": 741,
      "Ġeyes": 742,
      "ex": 743,
      "ĠK": 744,
      "bt": 745,
      "owed": 746,
      "cei": 747,
      "aught": 748,
      "ren": 749,
      "lic": 750,
      "su": 751,
      "Ġadd": 752,
      "wards": 753,
      "Ġsat": 754,
      "erm": 755,
      "Ġback": 756,
      "Ġhar": 757,
      "Ġbelie": 758,
      "ears": 759,
      "lt": 760,
      "Ġhowever": 761,
      "Ġfam": 762,
      "Ġmor": 763,
      "Ġgl": 764,
      "Ġdoor": 765,
      "ention": 766,
      "ause": 767,
      "But": 768,
      "ĠâĢĺ": 769,
      "ense": 770,
      "And": 771,
      "Ġch": 772,
      "Ġsupp": 773,
      "Ġ1": 774,
      "ways": 775,
      "with": 776,
      "Ġcour": 777,
      "Ġinst": 778,
      "ĠAnd": 779,
      "uc": 780,
      "Ġwent": 781,
      "Ġsom": 782,
      "He": 783,
      "rest": 784,
      "Ġquite": 785,
      ".âĢĻ": 786,
      "Ġear": 787,
      "ained": 788,
      "iz": 789,
      "ron": 790,
      "Ġmis": 791,
      "Ġpers": 792,
      "ents": 793,
      "urp": 794,
      "Ġmean": 795,
      "ract": 796,
      "Ġposs": 797,
      "ither": 798,
      "Ġbl": 799,
      "Ġhere": 800,
      "Ġfelt": 801,
      "Ġmany": 802,
      "ory": 803,
      "Ġinde": 804,
      "air": 805,
      "erv": 806,
      "Ġcertain": 807,
      "Ġlife": 808,
      "Ġset": 809,
      "Ġocc": 810,
      "Ġfew": 811,
      "ered": 812,
      "ten": 813,
      "Ġcall": 814,
      "Ġcount": 815,
      "Ġlove": 816,
      "Ġhimself": 817,
      "Ġcomm": 818,
      "Ġref": 819,
      "Ġstill": 820,
      "ord": 821,
      "icul": 822,
      "ently": 823,
      "Ġletter": 824,
      "get": 825,
      "Ġfind": 826,
      "fort": 827,
      "igh": 828,
      "ĠMy": 829,
      "up": 830,
      "Ġmind": 831,
      "ressed": 832,
      "Ġans": 833,
      "aint": 834,
      "ason": 835,
      "sh": 836,
      "Ġhope": 837,
      "Ġev": 838,
      "Ġsame": 839,
      "Ġcannot": 840,
      "Elizabeth": 841,
      "Mr": 842,
      "Ġthose": 843,
      "Ġgive": 844,
      "Ġrec": 845,
      "Ġkind": 846,
      "Ġlo": 847,
      "cept": 848,
      "ition": 849,
      "ĠIf": 850,
      "lied": 851,
      "yd": 852,
      "ene": 853,
      "imes": 854,
      "Ġwhom": 855,
      "ickham": 856,
      "Ġint": 857,
      "Ġform": 858,
      "ected": 859,
      "app": 860,
      "ew": 861,
      "vers": 862,
      "aking": 863,
      "Ġmorning": 864,
      "Ġnat": 865,
      "Ġnight": 866,
      "Ġalways": 867,
      "Ġfamily": 868,
      "ollins": 869,
      "ph": 870,
      "row": 871,
      "Ġfoll": 872,
      "Ġwhile": 873,
      "Ġonce": 874,
      "Ġconf": 875,
      "Ġleft": 876,
      "ger": 877,
      "Ġwish": 878,
      "Ġhead": 879,
      "ction": 880,
      "she": 881,
      "Ġtell": 882,
      "Ġmom": 883,
      "ised": 884,
      "Ġsec": 885,
      "oubt": 886,
      "Ġcried": 887,
      "Ġke": 888,
      "haps": 889,
      "ict": 890,
      "entle": 891,
      "ap": 892,
      "its": 893,
      "Ġget": 894,
      "Ġwind": 895,
      "iv": 896,
      "my": 897,
      "ĠThere": 898,
      "lock": 899,
      "Ġlooked": 900,
      "Ġhard": 901,
      "Ġinte": 902,
      "Ġdisc": 903,
      "ial": 904,
      "most": 905,
      "Ġra": 906,
      "opy": 907,
      "ceived": 908,
      "Ġindeed": 909,
      "ener": 910,
      "Ġvis": 911,
      "Ġright": 912,
      "Ġpe": 913,
      "Ġass": 914,
      "Ġenough": 915,
      "Ġtook": 916,
      "vour": 917,
      "Ġsub": 918,
      "ustr": 919,
      "Ġnew": 920,
      "which": 921,
      "Ġtake": 922,
      "unt": 923,
      "ody": 924,
      "Yes": 925,
      "Ġread": 926,
      "Ġplace": 927,
      "pl": 928,
      "Ġgi": 929,
      "Ġadv": 930,
      "aut": 931,
      "Ġdre": 932,
      "ĠIn": 933,
      "Ġrest": 934,
      "riage": 935,
      "Ġface": 936,
      "Ġthrough": 937,
      "bour": 938,
      "ired": 939,
      "Ġdif": 940,
      "Ġnear": 941,
      "Ġseemed": 942,
      "Oh": 943,
      "Ġind": 944,
      "ething": 945,
      "Ġwom": 946,
      "Ġmatter": 947,
      "Ġsure": 948,
      "ĠCollins": 949,
      "ydia": 950,
      "ince": 951,
      "itu": 952,
      "Ġseen": 953,
      "form": 954,
      "Ġhear": 955,
      "ĠWickham": 956,
      "spect": 957,
      "now": 958,
      "Ġdone": 959,
      "Ġem": 960,
      "Ġmother": 961,
      "Ġcar": 962,
      "ider": 963,
      "den": 964,
      "har": 965,
      "Ġchan": 966,
      "Ġfar": 967,
      "Ġheart": 968,
      "ared": 969,
      "oice": 970,
      "oth": 971,
      "Ġla": 972,
      "Ġgentle": 973,
      "Ġreg": 974,
      "ched": 975,
      "Ġwa": 976,
      "Ġdet": 977,
      "Ġside": 978,
      "rem": 979,
      "llustr": 980,
      "Ġhour": 981,
      "ute": 982,
      "Ġaffect": 983,
      "Ġhands": 984,
      "ix": 985,
      "oke": 986,
      "Illustr": 987,
      "ail": 988,
      "ek": 989,
      "uring": 990,
      "Ġpassed": 991,
      "Illustration": 992,
      "Ġmoment": 993,
      "day": 994,
      "ual": 995,
      "Ġold": 996,
      "Ġtowards": 997,
      "ĠLady": 998,
      "Ġwhole": 999,
      "ures": 1000,
      "ott": 1001,
      "Ġreturn": 1002,
      "Ġput": 1003,
      "Ġbetter": 1004,
      "What": 1005,
      "ock": 1006,
      "Ġmin": 1007,
      "Ġhalf": 1008,
      "stand": 1009,
      "Ġthree": 1010,
      "ably": 1011,
      "Ġext": 1012,
      "Ġcontin": 1013,
      "here": 1014,
      "Ġdaught": 1015,
      "ceed": 1016,
      "ĠWe": 1017,
      "ately": 1018,
      "Ġrather": 1019,
      "Ġpoint": 1020,
      "ured": 1021,
      "ĠLydia": 1022,
      "My": 1023,
      "imp": 1024,
      "irl": 1025,
      "ility": 1026,
      "Ġreplied": 1027,
      "Ġwant": 1028,
      "Ġfl": 1029,
      "ween": 1030,
      "Ġbegan": 1031,
      "Ġbelieve": 1032,
      "Ġhaving": 1033,
      "ĠThey": 1034,
      "had": 1035,
      "Ġoften": 1036,
      "Ġinc": 1037,
      "Ġasked": 1038,
      "room": 1039,
      "ement": 1040,
      "ember": 1041,
      "osed": 1042,
      "Ġknew": 1043,
      "Ġalso": 1044,
      "Ġobs": 1045,
      "Ġsil": 1046,
      "Ġbus": 1047,
      "Ġcle": 1048,
      "Ġanother": 1049,
      "Ġsmall": 1050,
      "Ġless": 1051,
      "Ġgu": 1052,
      "ety": 1053,
      "alked": 1054,
      "Ġexc": 1055,
      "Ġdoes": 1056,
      "ult": 1057,
      "ates": 1058,
      "Ġreally": 1059,
      "Ġcourse": 1060,
      "Ġsomething": 1061,
      "Ġcreat": 1062,
      "Ġdoubt": 1063,
      "ribut": 1064,
      "hy": 1065,
      "xt": 1066,
      "Ġcase": 1067,
      "ater": 1068,
      "Ġreason": 1069,
      "She": 1070,
      "reet": 1071,
      "iting": 1072,
      "Ġcr": 1073,
      "Ġche": 1074,
      "ors": 1075,
      "eared": 1076,
      "ling": 1077,
      "ss": 1078,
      "Ġcur": 1079,
      "any": 1080,
      "Ġyears": 1081,
      "aken": 1082,
      "Ġpresent": 1083,
      "Ġwoman": 1084,
      ",--": 1085,
      "ued": 1086,
      "Ġide": 1087,
      "Ġuse": 1088,
      "Ġround": 1089,
      "onder": 1090,
      "Ġperson": 1091,
      "son": 1092,
      "will": 1093,
      "Ġbet": 1094,
      "Ġappear": 1095,
      "ER": 1096,
      "cle": 1097,
      "over": 1098,
      "Ġmon": 1099,
      "Ġwords": 1100,
      "Ġfeelings": 1101,
      "Ġ(": 1102,
      "Ġdon": 1103,
      "Ġlight": 1104,
      "ower": 1105,
      "empt": 1106,
      "Ġworld": 1107,
      "urpr": 1108,
      "lp": 1109,
      "ĠU": 1110,
      "Ġhome": 1111,
      "Ġchi": 1112,
      "Ġmanner": 1113,
      "Ġconsider": 1114,
      "Ġinterest": 1115,
      "Ġill": 1116,
      "have": 1117,
      "Ġlady": 1118,
      "ield": 1119,
      "no": 1120,
      "ĠY": 1121,
      "Ġsince": 1122,
      "Ġcopy": 1123,
      "Ġnor": 1124,
      "Ġgirl": 1125,
      "Ġrel": 1126,
      "Ġfear": 1127,
      "Ġhappy": 1128,
      "No": 1129,
      "owing": 1130,
      "Ġanything": 1131,
      "gether": 1132,
      "Ġcor": 1133,
      "Ġstran": 1134,
      "Ġperhaps": 1135,
      "Ġobject": 1136,
      "act": 1137,
      "Ġgave": 1138,
      "atherine": 1139,
      "Ġchild": 1140,
      "land": 1141,
      "part": 1142,
      "ank": 1143,
      "Ġbeaut": 1144,
      "ully": 1145,
      "Ġopen": 1146,
      "body": 1147,
      "Ġtold": 1148,
      "Ġeng": 1149,
      "Ġdire": 1150,
      "Ġhum": 1151,
      "ĠThis": 1152,
      "Ġdays": 1153,
      "af": 1154,
      "wer": 1155,
      "Ġbest": 1156,
      "atch": 1157,
      "Ġinv": 1158,
      "Well": 1159,
      "isf": 1160,
      "Ġhor": 1161,
      "quaint": 1162,
      "Ġcountry": 1163,
      "dis": 1164,
      "Ġtra": 1165,
      "Ġtalk": 1166,
      "Ġwalk": 1167,
      "rent": 1168,
      "Ġfriends": 1169,
      "Ġsubject": 1170,
      "This": 1171,
      "og": 1172,
      "ting": 1173,
      "Ġboth": 1174,
      "ĠHis": 1175,
      "Ġvoice": 1176,
      "Ġleave": 1177,
      "Ġworks": 1178,
      "Ġwindow": 1179,
      "ang": 1180,
      "used": 1181,
      "icular": 1182,
      "him": 1183,
      "Ġprom": 1184,
      "sel": 1185,
      "Ġgener": 1186,
      "ross": 1187,
      "ĠAs": 1188,
      "Ġlet": 1189,
      "Ġquest": 1190,
      "Ġbetween": 1191,
      ",âĢĻ": 1192,
      "Ġeach": 1193,
      "Ġvisit": 1194,
      "by": 1195,
      "Ġturn": 1196,
      "Ġgone": 1197,
      "Ġunt": 1198,
      "ronic": 1199,
      "iam": 1200,
      "Ġhelp": 1201,
      "ĠWhat": 1202,
      "Ġleast": 1203,
      "Ġwhose": 1204,
      "Ġabs": 1205,
      "aged": 1206,
      "ĠĠĠĠĠĠĠĠĠĠĠĠĠĠĠĠĠĠĠĠĠĠĠĠĠĠĠĠĠĠĠĠ": 1207,
      "Ġaffection": 1208,
      "That": 1209,
      "ken": 1210,
      "und": 1211,
      "use": 1212,
      "your": 1213,
      "Ġturned": 1214,
      "ready": 1215,
      "Ġmen": 1216,
      "Ġlar": 1217,
      "Ġlist": 1218,
      "ster": 1219,
      "Ġadm": 1220,
      "Ġagainst": 1221,
      "overed": 1222,
      "Ġpleasure": 1223,
      "Ġhardly": 1224,
      "du": 1225,
      "Ġwonder": 1226,
      "Ġsurpr": 1227,
      "Ġdra": 1228,
      "Ġthing": 1229,
      "ended": 1230,
      "cer": 1231,
      "Ġterm": 1232,
      "oud": 1233,
      "Ġinter": 1234,
      "Ġel": 1235,
      "Ġeas": 1236,
      "Ġfort": 1237,
      "Ġnext": 1238,
      "itted": 1239,
      "Ġamong": 1240,
      "Ġspeak": 1241,
      "Ġcertainly": 1242,
      "etimes": 1243,
      "Ġfell": 1244,
      "Ġalmost": 1245,
      "Ġobser": 1246,
      "Ġact": 1247,
      "Ġgot": 1248,
      "Ġwithin": 1249,
      "ild": 1250,
      "ating": 1251,
      "ĠCatherine": 1252,
      "Ġchar": 1253,
      "Ġunderstand": 1254,
      "lectronic": 1255,
      "bit": 1256,
      "dden": 1257,
      "oot": 1258,
      "arm": 1259,
      "ection": 1260,
      "cess": 1261,
      "ib": 1262,
      "Ġask": 1263,
      "Ġdelight": 1264,
      "ople": 1265,
      "cri": 1266,
      "ned": 1267,
      "what": 1268,
      "There": 1269,
      "Ġyourself": 1270,
      "ĠWhen": 1271,
      "Ġarri": 1272,
      "Ġgoing": 1273,
      "Ġevening": 1274,
      "rence": 1275,
      "racter": 1276,
      "Ġidea": 1277,
      "br": 1278,
      "Ġwife": 1279,
      "Ġsens": 1280,
      "Ġname": 1281,
      "Ġsudden": 1282,
      "Ġdeath": 1283,
      "Ġpoor": 1284,
      "Ġbusiness": 1285,
      "der": 1286,
      "Ġtown": 1287,
      "Ġword": 1288,
      "Ġimag": 1289,
      "Ġappeared": 1290,
      "ferent": 1291,
      "medi": 1292,
      "Ġanswer": 1293,
      "Ġdaughter": 1294,
      "Ġuntil": 1295,
      "night": 1296,
      "Ġcare": 1297,
      "anc": 1298,
      "laim": 1299,
      "Ġmeans": 1300,
      "fortun": 1301,
      "Ġterms": 1302,
      "pro": 1303,
      "Ġcond": 1304,
      "att": 1305,
      "ĠHow": 1306,
      "Ġdeep": 1307,
      "Ġwhether": 1308,
      "fully": 1309,
      "les": 1310,
      "erable": 1311,
      "Ġmet": 1312,
      "Ġinstant": 1313,
      "Ġpossible": 1314,
      "Ġgiven": 1315,
      "rong": 1316,
      "ton": 1317,
      "ually": 1318,
      "zy": 1319,
      "iner": 1320,
      "Ġsent": 1321,
      "ances": 1322,
      "Ġhur": 1323,
      "Ġstep": 1324,
      "Ġtherefore": 1325,
      "ondon": 1326,
      "Ġspoke": 1327,
      "ney": 1328,
      "Ġhappiness": 1329,
      "ub": 1330,
      "Ġtill": 1331,
      "oured": 1332,
      "Ġpar": 1333,
      "ided": 1334,
      "ool": 1335,
      "Ġspir": 1336,
      "Ġbrought": 1337,
      "ached": 1338,
      "gr": 1339,
      "pos": 1340,
      "Ġsir": 1341,
      "asion": 1342,
      "utes": 1343,
      "veral": 1344,
      "ains": 1345,
      "pped": 1346,
      "though": 1347,
      "ments": 1348,
      "ĠFor": 1349,
      "Ġparticular": 1350,
      "Ġbrother": 1351,
      "Ġresol": 1352,
      "Ġbre": 1353,
      "Ġhigh": 1354,
      "ĠĠĠĠĠĠĠ": 1355,
      "Ġdec": 1356,
      "Ġprov": 1357,
      "Ġcalled": 1358,
      "We": 1359,
      "Ġduring": 1360,
      "Ġbecame": 1361,
      "HA": 1362,
      "mer": 1363,
      "wered": 1364,
      "Ġothers": 1365,
      "Ġexpress": 1366,
      "In": 1367,
      "from": 1368,
      "Ġdest": 1369,
      "Ġshort": 1370,
      "tered": 1371,
      "Ġsatisf": 1372,
      "How": 1373,
      "ĠV": 1374,
      "Ġair": 1375,
      "Ġcir": 1376,
      "uth": 1377,
      "Ġweek": 1378,
      "this": 1379,
      "pend": 1380,
      "Ġalone": 1381,
      "Ġperfect": 1382,
      "Ġattention": 1383,
      "Ġentered": 1384,
      "Ġadded": 1385,
      "versation": 1386,
      "Ġlaw": 1387,
      "When": 1388,
      "av": 1389,
      "Ġtogether": 1390,
      "Ġinf": 1391,
      "Ġpower": 1392,
      "Ġeither": 1393,
      "amp": 1394,
      "ĠLong": 1395,
      "Ġalready": 1396,
      "ĠDo": 1397,
      "ĠGard": 1398,
      "well": 1399,
      "Ġexpl": 1400,
      "Ġreturned": 1401,
      "izzy": 1402,
      "mon": 1403,
      "vent": 1404,
      "Ġfull": 1405,
      "ical": 1406,
      "Ġreceived": 1407,
      "ĠLondon": 1408,
      "oundation": 1409,
      "Ġendea": 1410,
      "aid": 1411,
      "would": 1412,
      "Ġsl": 1413,
      "Ġser": 1414,
      "itation": 1415,
      "ingly": 1416,
      "Ġlad": 1417,
      "Ġlive": 1418,
      "herlock": 1419,
      "olone": 1420,
      "ledge": 1421,
      "Ġlooking": 1422,
      "Ġcontinued": 1423,
      "olonel": 1424,
      "?âĢĻ": 1425,
      "rew": 1426,
      "Ġmur": 1427,
      "ident": 1428,
      "aying": 1429,
      "Ġjo": 1430,
      "Ġbecause": 1431,
      "Ġpeople": 1432,
      "itude": 1433,
      "ian": 1434,
      "ror": 1435,
      "ination": 1436,
      "Ġopp": 1437,
      "like": 1438,
      "Ġconv": 1439,
      "ĠAr": 1440,
      "oney": 1441,
      "Ġimmedi": 1442,
      "Ġkeep": 1443,
      "bed": 1444,
      "cum": 1445,
      "gg": 1446,
      "wor": 1447,
      "arch": 1448,
      "Ġincl": 1449,
      "Ġconcer": 1450,
      "there": 1451,
      "raph": 1452,
      "Ġcompan": 1453,
      "iew": 1454,
      "hip": 1455,
      "comp": 1456,
      "Ġmonth": 1457,
      "selves": 1458,
      "Ġlarge": 1459,
      "ient": 1460,
      "Ġaunt": 1461,
      "Ġsound": 1462,
      "eng": 1463,
      "Ġinqu": 1464,
      "Ġmeet": 1465,
      "Ġfact": 1466,
      "Ġaccount": 1467,
      "Ġmarriage": 1468,
      "Ġacquaint": 1469,
      "Ġanswered": 1470,
      "Ġclear": 1471,
      "ught": 1472,
      "ying": 1473,
      "inion": 1474,
      "Ġson": 1475,
      "Ġdark": 1476,
      "Ġpur": 1477,
      "rie": 1478,
      "Then": 1479,
      "Ġsuff": 1480,
      "were": 1481,
      "ĠFoundation": 1482,
      "Ġcharacter": 1483,
      "band": 1484,
      "Ġtru": 1485,
      "Ġtaken": 1486,
      "Ġwalked": 1487,
      "Ġmo": 1488,
      "Ġequ": 1489,
      "Ġthings": 1490,
      "Ġlear": 1491,
      "Ġable": 1492,
      "Ġnature": 1493,
      "Ġdirect": 1494,
      "ip": 1495,
      "Ġaw": 1496,
      "aster": 1497,
      "Ġhop": 1498,
      "Ġrequ": 1499,
      "ceive": 1500,
      "They": 1501,
      "ĠHer": 1502,
      "Ġseveral": 1503,
      "itting": 1504,
      "Ġuncle": 1505,
      "ager": 1506,
      "ference": 1507,
      "ĠKing": 1508,
      "lot": 1509,
      "Ġwood": 1510,
      "Ġsing": 1511,
      "Ġhon": 1512,
      "aded": 1513,
      "hind": 1514,
      "pers": 1515,
      "vi": 1516,
      "val": 1517,
      "happ": 1518,
      "Ġco": 1519,
      "Ġfin": 1520,
      "Ġdro": 1521,
      "arked": 1522,
      "Ġlau": 1523,
      "Ġelectronic": 1524,
      "Ġwhy": 1525,
      "Ġsun": 1526,
      "rying": 1527,
      "Ġremark": 1528,
      "bourn": 1529,
      "Ġminutes": 1530,
      "ĠGardiner": 1531,
      "PT": 1532,
      "ec": 1533,
      "field": 1534,
      "Ġtable": 1535,
      "Ġfour": 1536,
      "Ġcoming": 1537,
      "airs": 1538,
      "harlot": 1539,
      "Ġdeterm": 1540,
      "harlotte": 1541,
      "oint": 1542,
      "when": 1543,
      "Ġ2": 1544,
      "leep": 1545,
      "usband": 1546,
      "ĠOn": 1547,
      "ossible": 1548,
      "ucas": 1549,
      "Ġelse": 1550,
      "cumst": 1551,
      "come": 1552,
      "ience": 1553,
      "Ġins": 1554,
      "Ġlost": 1555,
      "ĠAt": 1556,
      "ĠWill": 1557,
      "ford": 1558,
      "Ġfavour": 1559,
      "Ġquestion": 1560,
      "Ġfortun": 1561,
      "could": 1562,
      "cour": 1563,
      "do": 1564,
      "iet": 1565,
      "Ġsor": 1566,
      "hap": 1567,
      "iter": 1568,
      "Ġfire": 1569,
      "Ġpol": 1570,
      "ural": 1571,
      "Ġstrong": 1572,
      "iful": 1573,
      "ushed": 1574,
      "lack": 1575,
      "Ġprof": 1576,
      "Ġexpect": 1577,
      "Ġgentleman": 1578,
      "Ġladies": 1579,
      "bs": 1580,
      "where": 1581,
      "Ġmoney": 1582,
      "Ġbo": 1583,
      "Ġbro": 1584,
      "ĠThen": 1585,
      "Ġagree": 1586,
      "cont": 1587,
      "Ġopinion": 1588,
      "ighbour": 1589,
      "Ġstrange": 1590,
      "HAPT": 1591,
      "HAPTER": 1592,
      "As": 1593,
      "some": 1594,
      "tle": 1595,
      "yed": 1596,
      "Ġmad": 1597,
      "ash": 1598,
      "atson": 1599,
      "iment": 1600,
      "Ġanx": 1601,
      "Ġknown": 1602,
      "ission": 1603,
      "If": 1604,
      "ale": 1605,
      "ted": 1606,
      "orm": 1607,
      "Ġpain": 1608,
      "idence": 1609,
      "Ġconversation": 1610,
      "formation": 1611,
      "Ġtri": 1612,
      "Ġsort": 1613,
      "rely": 1614,
      "Ġsum": 1615,
      "Ġagre": 1616,
      "Ġprob": 1617,
      "Ġappro": 1618,
      "Ġmarried": 1619,
      "Ġoccasion": 1620,
      "ners": 1621,
      "ring": 1622,
      "uct": 1623,
      "ĠQ": 1624,
      "Ġes": 1625,
      "read": 1626,
      "Ġmention": 1627,
      "Ġlay": 1628,
      "Ġrespect": 1629,
      "them": 1630,
      "Ġprop": 1631,
      "Ġseeing": 1632,
      "Ġarm": 1633,
      "Ġdistribut": 1634,
      "exp": 1635,
      "Ġsuppose": 1636,
      "Ġreflect": 1637,
      "Ġchange": 1638,
      "Ġhuman": 1639,
      "Ġsuddenly": 1640,
      "eas": 1641,
      "ffect": 1642,
      "men": 1643,
      "Ġsy": 1644,
      "Ġcous": 1645,
      "ancy": 1646,
      "ution": 1647,
      "Ġreal": 1648,
      "they": 1649,
      "ĠLucas": 1650,
      "ĠEng": 1651,
      "ccess": 1652,
      "Ġdesp": 1653,
      "retched": 1654,
      "Ġsmil": 1655,
      "Ġdifferent": 1656,
      "Ġhours": 1657,
      "ĠLongbourn": 1658,
      "hapter": 1659,
      "oun": 1660,
      "Ġbed": 1661,
      "Ġthus": 1662,
      "oose": 1663,
      "ousand": 1664,
      "Ġquick": 1665,
      "Ġdiff": 1666,
      "Ġfellow": 1667,
      "eor": 1668,
      "Ġut": 1669,
      "ides": 1670,
      "Ġgra": 1671,
      "essed": 1672,
      "ĠLizzy": 1673,
      "ooks": 1674,
      "Ġdisapp": 1675,
      "Ġobli": 1676,
      "cons": 1677,
      "Ġprot": 1678,
      "Ġplay": 1679,
      "Ġsecond": 1680,
      "hood": 1681,
      "pleas": 1682,
      "ons": 1683,
      "Ġcause": 1684,
      "ĠĠĠĠĠ": 1685,
      "ĠAll": 1686,
      "their": 1687,
      "ĠWatson": 1688,
      "Ġview": 1689,
      "usion": 1690,
      "ueen": 1691,
      "Ġfeeling": 1692,
      "Ġsometimes": 1693,
      "ĠWilliam": 1694,
      "II": 1695,
      "ead": 1696,
      "iable": 1697,
      "joy": 1698,
      "Ġest": 1699,
      "Ġsur": 1700,
      "Ġsense": 1701,
      "Ġclo": 1702,
      "Ġfall": 1703,
      "ative": 1704,
      "Ġbehind": 1705,
      "ury": 1706,
      "Ġstate": 1707,
      "itty": 1708,
      "iece": 1709,
      "Ġoffic": 1710,
      "Not": 1711,
      "ey": 1712,
      "Ġten": 1713,
      "Ġtran": 1714,
      "Ġsight": 1715,
      "Ġserv": 1716,
      "Ġmist": 1717,
      "Ġca": 1718,
      "Ġfree": 1719,
      "Ġdan": 1720,
      "Ġpret": 1721,
      "ether": 1722,
      "ession": 1723,
      "ourney": 1724,
      "Ġconn": 1725,
      "Ġneed": 1726,
      "ĠGeor": 1727,
      "ishment": 1728,
      "Ġsisters": 1729,
      "Ġscene": 1730,
      "Ġsilence": 1731,
      "etherfield": 1732,
      "Alice": 1733,
      "_,": 1734,
      "cha": 1735,
      "ding": 1736,
      "mor": 1737,
      "par": 1738,
      "ray": 1739,
      "Ġought": 1740,
      "Ġbene": 1741,
      "Ġblack": 1742,
      "enance": 1743,
      "Ġcold": 1744,
      "Ġang": 1745,
      "liar": 1746,
      "raid": 1747,
      "itten": 1748,
      "ages": 1749,
      "lace": 1750,
      "Ġparty": 1751,
      "Ġground": 1752,
      "should": 1753,
      "Ġfollowed": 1754,
      "ĠUn": 1755,
      "Ġimmediately": 1756,
      "Ġtrue": 1757,
      "Ġhonour": 1758,
      "CHAPTER": 1759,
      "EN": 1760,
      "plo": 1761,
      "Ġ*": 1762,
      "Ġed": 1763,
      "ities": 1764,
      "ison": 1765,
      "Ġhast": 1766,
      "Ġhusband": 1767,
      "Ġstru": 1768,
      "olute": 1769,
      "Ġaff": 1770,
      "ĠThat": 1771,
      "cious": 1772,
      "Ġcompanion": 1773,
      "aven": 1774,
      "can": 1775,
      "ĠX": 1776,
      "Ġeager": 1777,
      "Ġstart": 1778,
      "ular": 1779,
      "Ġran": 1780,
      "Ġused": 1781,
      "Ġremarked": 1782,
      "Ġcomple": 1783,
      "Ġimport": 1784,
      "Ġlonger": 1785,
      "Ġoccur": 1786,
      "Ġdraw": 1787,
      "ĠQueen": 1788,
      "cent": 1789,
      "look": 1790,
      "Ġswe": 1791,
      "ering": 1792,
      "ising": 1793,
      "Ġbit": 1794,
      "ony": 1795,
      "Ġciv": 1796,
      "thy": 1797,
      "akes": 1798,
      "irely": 1799,
      "Ġremained": 1800,
      "rupt": 1801,
      "Ġeverything": 1802,
      "Ġopened": 1803,
      "Ġpersu": 1804,
      "Ġcircumst": 1805,
      "fter": 1806,
      "iol": 1807,
      "âĦ": 1808,
      "ining": 1809,
      "Ġwished": 1810,
      "Ġsign": 1811,
      "Ġcap": 1812,
      "Ġcott": 1813,
      "Ġfix": 1814,
      "Ġpurp": 1815,
      "ĠeB": 1816,
      "Ġself": 1817,
      "ĠColonel": 1818,
      "Ġjoy": 1819,
      "ĠTur": 1820,
      "âĢĶâĢĿ": 1821,
      "Ġremember": 1822,
      "ief": 1823,
      "Ġchair": 1824,
      "Ġbegin": 1825,
      "Ġformer": 1826,
      "Ġcopyright": 1827,
      "Ġbreak": 1828,
      "Ġcousin": 1829,
      "âĦ¢": 1830,
      "des": 1831,
      "every": 1832,
      "uck": 1833,
      "Ġast": 1834,
      "rep": 1835,
      "reas": 1836,
      "requ": 1837,
      "Ġfive": 1838,
      "Ġrepe": 1839,
      "Ġforward": 1840,
      "aining": 1841,
      "Ġanyone": 1842,
      "Ġattempt": 1843,
      "Ġlikely": 1844,
      "ĠStreet": 1845,
      "Ġsett": 1846,
      "Ġgeneral": 1847,
      "Ġmonths": 1848,
      "Why": 1849,
      "az": 1850,
      "fast": 1851,
      "Ġsw": 1852,
      "Ġsitu": 1853,
      "Ġyes": 1854,
      "Ġneighbour": 1855,
      "Ġmanners": 1856,
      "Ġthoughts": 1857,
      "Ġglad": 1858,
      "Mrs": 1859,
      "Ġregard": 1860,
      "Ġperfectly": 1861,
      "acc": 1862,
      "long": 1863,
      "inary": 1864,
      "eness": 1865,
      "Ġdri": 1866,
      "Ġyear": 1867,
      "Ġeffect": 1868,
      "ows": 1869,
      "sequ": 1870,
      "irm": 1871,
      "Ġstay": 1872,
      "Ġstand": 1873,
      "Ġstud": 1874,
      "Ġdead": 1875,
      "ĠTh": 1876,
      "cip": 1877,
      "iously": 1878,
      "ront": 1879,
      "Ġmiserable": 1880,
      "Ġcreature": 1881,
      "ublic": 1882,
      "ength": 1883,
      "vol": 1884,
      "Ġsou": 1885,
      "Ġcoll": 1886,
      "arr": 1887,
      "Ġhat": 1888,
      "ote": 1889,
      "Ġled": 1890,
      "cell": 1891,
      "ames": 1892,
      "Ġdeal": 1893,
      "ĠSherlock": 1894,
      "Ġviol": 1895,
      "Ġru": 1896,
      "ĠCharlotte": 1897,
      "Ġcomfort": 1898,
      "Ġafraid": 1899,
      "ĠTo": 1900,
      "Ġexpected": 1901,
      "Ġscar": 1902,
      "Ġeye": 1903,
      "Ġmisery": 1904,
      "Ġappearance": 1905,
      "Ġengaged": 1906,
      "Ġsurprised": 1907,
      "Ġclose": 1908,
      "._": 1909,
      "fa": 1910,
      "ho": 1911,
      "king": 1912,
      "nest": 1913,
      "Ġter": 1914,
      "inter": 1915,
      "ouble": 1916,
      "vel": 1917,
      "Ġsol": 1918,
      "Ġdeg": 1919,
      "Ġnecess": 1920,
      "Ġago": 1921,
      "ĠOh": 1922,
      "ĠNetherfield": 1923,
      "Ġseems": 1924,
      "Ġaccept": 1925,
      "ĠKitty": 1926,
      "Ġassist": 1927,
      "father": 1928,
      "how": 1929,
      "Ġslight": 1930,
      "Ġph": 1931,
      "Ġbeha": 1932,
      "Ġthousand": 1933,
      "Ġstory": 1934,
      "Ġdev": 1935,
      "Ġexam": 1936,
      "ants": 1937,
      "Ġknowledge": 1938,
      "ciety": 1939,
      "Ġobserved": 1940,
      "Ġspirits": 1941,
      "chan": 1942,
      "ging": 1943,
      "little": 1944,
      "inced": 1945,
      "ream": 1946,
      "alth": 1947,
      "ĠMary": 1948,
      "ific": 1949,
      "ards": 1950,
      "arden": 1951,
      "Ġrun": 1952,
      "Ġjourney": 1953,
      "ĠTH": 1954,
      "feel": 1955,
      "Ġbring": 1956,
      "Ġimpossible": 1957,
      "Ġdread": 1958,
      "Ġemplo": 1959,
      "ancing": 1960,
      "Ġdifficul": 1961,
      "Ġaston": 1962,
      "Your": 1963,
      "ier": 1964,
      "reme": 1965,
      "Ġnone": 1966,
      "Ġhold": 1967,
      "Ġland": 1968,
      "cely": 1969,
      "Ġund": 1970,
      "ĠAn": 1971,
      "Ġvar": 1972,
      "Ġjud": 1973,
      "Ġquiet": 1974,
      "ressing": 1975,
      "been": 1976,
      "ĠNo": 1977,
      "Ġwrite": 1978,
      "Ġcarriage": 1979,
      "Ġsilent": 1980,
      "Ġbeauty": 1981,
      "ee": 1982,
      "lerv": 1983,
      "nat": 1984,
      "pr": 1985,
      "Ġav": 1986,
      "ars": 1987,
      "Ġpat": 1988,
      "ans": 1989,
      "Ġele": 1990,
      "Ġgrie": 1991,
      "Ġstood": 1992,
      "ush": 1993,
      "ung": 1994,
      "dered": 1995,
      "hile": 1996,
      "comm": 1997,
      "Ġacross": 1998,
      "Ġearly": 1999,
      "Ġnearly": 2000,
      "Ġtalking": 2001,
      "Ġeasily": 2002,
      "Ġdestro": 2003,
      "viour": 2004,
      "Ġagreement": 2005,
      "Ġdanger": 2006,
      "Ġsettled": 2007,
      "lerval": 2008,
      "bled": 2009,
      "Ġsleep": 2010,
      "Ġcal": 2011,
      "icense": 2012,
      "enty": 2013,
      "Ġitself": 2014,
      "irt": 2015,
      "Ġfeet": 2016,
      "antage": 2017,
      "ortun": 2018,
      "Ġproceed": 2019,
      "Ġenjoy": 2020,
      "Ġ18": 2021,
      "Ġinstantly": 2022,
      "ĠGeorge": 2023,
      "Do": 2024,
      "know": 2025,
      "ship": 2026,
      "Ġtried": 2027,
      "Ġsk": 2028,
      "Ġsitting": 2029,
      "hand": 2030,
      "Ġmot": 2031,
      "Ġmil": 2032,
      "Ġmount": 2033,
      "Ġfoot": 2034,
      "Ġhair": 2035,
      "Ġlate": 2036,
      "Ġlength": 2037,
      "Ġforg": 2038,
      "ĠMock": 2039,
      "ified": 2040,
      "Ġabove": 2041,
      "ump": 2042,
      "before": 2043,
      "Ġperm": 2044,
      "Ġdescri": 2045,
      "Ġafterwards": 2046,
      "Ġentirely": 2047,
      "uded": 2048,
      "ĠNow": 2049,
      "Ġhappened": 2050,
      "Ġgrat": 2051,
      "eryton": 2052,
      "Ġnatural": 2053,
      "Ġnews": 2054,
      "Ġdrew": 2055,
      "angu": 2056,
      "Ġendeavour": 2057,
      "ĠUnited": 2058,
      "!âĢĻ": 2059,
      "aving": 2060,
      "friend": 2061,
      "mp": 2062,
      "side": 2063,
      "wise": 2064,
      "Ġwis": 2065,
      "Ġwatch": 2066,
      "Ġmine": 2067,
      "Ġmaking": 2068,
      "itz": 2069,
      "Ġfront": 2070,
      "Ġinno": 2071,
      "Ġgarden": 2072,
      "cend": 2073,
      "urst": 2074,
      "ird": 2075,
      "als": 2076,
      "tern": 2077,
      "illed": 2078,
      "redit": 2079,
      "Ġsuccess": 2080,
      "ustine": 2081,
      "agraph": 2082,
      "Ġprevent": 2083,
      "Ġpaid": 2084,
      "Ġaddress": 2085,
      "Ġrecoll": 2086,
      "phon": 2087,
      "Ġhorror": 2088,
      "Ġarrived": 2089,
      "Ġimagine": 2090,
      "Ġdetermined": 2091,
      "cellent": 2092,
      "hire": 2093,
      "rees": 2094,
      "ening": 2095,
      "only": 2096,
      "Ġdare": 2097,
      "Ġheav": 2098,
      "Ġred": 2099,
      "Ġforth": 2100,
      "Ġste": 2101,
      "Ġconcl": 2102,
      "Ġdepend": 2103,
      "resent": 2104,
      "ryphon": 2105,
      "Ġcompl": 2106,
      "fered": 2107,
      "Ġpaper": 2108,
      "Ġoccup": 2109,
      "Ġfollowing": 2110,
      "emberley": 2111,
      "Ġchildren": 2112,
      "Ġbeautiful": 2113,
      "Ġabsolute": 2114,
      "Ġsurprise": 2115,
      "Ġlaugh": 2116,
      "iterary": 2117,
      "RE": 2118,
      "ax": 2119,
      "hor": 2120,
      "iety": 2121,
      "more": 2122,
      "wo": 2123,
      "Ġbound": 2124,
      "Ġfut": 2125,
      "Ġdut": 2126,
      "aring": 2127,
      "Ġlow": 2128,
      "Ġwhite": 2129,
      "rible": 2130,
      "adem": 2131,
      "abbit": 2132,
      "ĠHatter": 2133,
      "Ġconce": 2134,
      "Ġexcept": 2135,
      "Ġexact": 2136,
      "resh": 2137,
      "Ġneither": 2138,
      "arent": 2139,
      "Ġspent": 2140,
      "Ġsaying": 2141,
      "Ġaccom": 2142,
      "Ġletters": 2143,
      "Ġevil": 2144,
      "Ġkindness": 2145,
      "ĠYour": 2146,
      "Ġresolved": 2147,
      "Ġacquaintance": 2148,
      "To": 2149,
      "ios": 2150,
      "Ġve": 2151,
      "Ġtone": 2152,
      "Ġcol": 2153,
      "Ġfur": 2154,
      "Ġtor": 2155,
      "Ġinformation": 2156,
      "Ġglo": 2157,
      "chive": 2158,
      "Ġsole": 2159,
      "Ġsusp": 2160,
      "Ġdef": 2161,
      "ĠSir": 2162,
      "Ġdoing": 2163,
      "umber": 2164,
      "Ġusual": 2165,
      "Ġrose": 2166,
      "Ġimpro": 2167,
      "Ġpride": 2168,
      "who": 2169,
      "Ġbecome": 2170,
      "upon": 2171,
      "Ġconduct": 2172,
      "Ġinquir": 2173,
      "Ġpurpose": 2174,
      "ĠTurtle": 2175,
      "Ġsituation": 2176,
      "Ġscarcely": 2177,
      "Gutenberg": 2178,
      "ND": 2179,
      "On": 2180,
      "_.": 2181,
      "ior": 2182,
      "sha": 2183,
      "wr": 2184,
      "Ġri": 2185,
      "Ġpublic": 2186,
      "Ġthrew": 2187,
      "lix": 2188,
      "Ġallowed": 2189,
      "Ġexist": 2190,
      "ĠWith": 2191,
      "ĠLet": 2192,
      "ĠChapter": 2193,
      "Ġamiable": 2194,
      "Ġalthough": 2195,
      "Ġthank": 2196,
      "Ġfair": 2197,
      "Ġdesire": 2198,
      "Ġgreater": 2199,
      "Ġtruth": 2200,
      "Ġwritten": 2201,
      "Ġcommon": 2202,
      "Ġsecret": 2203,
      "Ġadmir": 2204,
      "duced": 2205,
      "Ġparagraph": 2206,
      "Ġfortune": 2207,
      "ademark": 2208,
      "Miss": 2209,
      "sc": 2210,
      "vious": 2211,
      "voured": 2212,
      "Ġtem": 2213,
      "Ġtimes": 2214,
      "Ġwit": 2215,
      "Ġmod": 2216,
      "Ġpea": 2217,
      "icient": 2218,
      "ading": 2219,
      "Ġsociety": 2220,
      "Ġdepart": 2221,
      "Ġallow": 2222,
      "ĠGod": 2223,
      "ĠGryphon": 2224,
      "Ġdisg": 2225,
      "Ġtrust": 2226,
      "ĠStates": 2227,
      "Ġearth": 2228,
      "Ġcountenance": 2229,
      "position": 2230,
      "Ġconvinced": 2231,
      "Ġfixed": 2232,
      "Ġfuture": 2233,
      "iosity": 2234,
      "even": 2235,
      "elix": 2236,
      "pre": 2237,
      "ww": 2238,
      "yond": 2239,
      "Ġwon": 2240,
      "Ġsix": 2241,
      "rer": 2242,
      "Ġbes": 2243,
      "Ġden": 2244,
      "iced": 2245,
      "Ġwhis": 2246,
      "Ġmeant": 2247,
      "Ġmerely": 2248,
      "again": 2249,
      "ĠOF": 2250,
      "Ġcharge": 2251,
      "Ġhurried": 2252,
      "Ġsatisfied": 2253,
      "Ġhopes": 2254,
      "Ġbehaviour": 2255,
      "00": 2256,
      "Holmes": 2257,
      "bl": 2258,
      "eed": 2259,
      "under": 2260,
      "Ġmaster": 2261,
      "Ġball": 2262,
      "stant": 2263,
      "Ġassu": 2264,
      "Ġsend": 2265,
      "Ġvent": 2266,
      "Ġval": 2267,
      "osings": 2268,
      "Ġquar": 2269,
      "formed": 2270,
      "Ġart": 2271,
      "Ġpleased": 2272,
      "Ġpapers": 2273,
      "Ġplaced": 2274,
      "Ġwaiting": 2275,
      "Ġextreme": 2276,
      "Ġeasy": 2277,
      "Ġlaws": 2278,
      "Ġdespair": 2279,
      "co": 2280,
      "clock": 2281,
      "just": 2282,
      "som": 2283,
      "tr": 2284,
      "Ġir": 2285,
      "Ġwarm": 2286,
      "Ġwretched": 2287,
      "erve": 2288,
      "Ġbar": 2289,
      "Ġfore": 2290,
      "Ġfine": 2291,
      "Ġfancy": 2292,
      "asp": 2293,
      "lled": 2294,
      "Ġpri": 2295,
      "anced": 2296,
      "Ġlim": 2297,
      "Ġlab": 2298,
      "Ġready": 2299,
      "ĠMeryton": 2300,
      "live": 2301,
      "ĠSo": 2302,
      "iled": 2303,
      "ested": 2304,
      "ĠLiterary": 2305,
      "aker": 2306,
      "Ġlived": 2307,
      "Ġmisfortun": 2308,
      "Ġintro": 2309,
      "Ġdonations": 2310,
      "Ġsorry": 2311,
      "Ġesc": 2312,
      "Ġobliged": 2313,
      "Ġbreakfast": 2314,
      "Ġdegree": 2315,
      "ortunity": 2316,
      "AR": 2317,
      "His": 2318,
      "IT": 2319,
      "Jane": 2320,
      "So": 2321,
      "aw": 2322,
      "count": 2323,
      "good": 2324,
      "must": 2325,
      "Ġtea": 2326,
      "oup": 2327,
      "erved": 2328,
      "itions": 2329,
      "Ġfright": 2330,
      "Ġfrequ": 2331,
      "Ġpay": 2332,
      "Ġpast": 2333,
      "Ġlatter": 2334,
      "iding": 2335,
      "Ġexper": 2336,
      "Ġsmile": 2337,
      "Ġmarry": 2338,
      "opyright": 2339,
      "ĠYet": 2340,
      "ĠĠĠĠĠĠĠĠĠĠĠĠĠĠĠĠĠĠĠĠĠĠĠĠĠĠĠĠĠĠĠĠĠĠĠĠĠĠĠĠ": 2341,
      "Ġlistened": 2342,
      "Ġpursu": 2343,
      "Ġpeace": 2344,
      "cu": 2345,
      "kind": 2346,
      "ming": 2347,
      "ob": 2348,
      "oved": 2349,
      "ug": 2350,
      "uish": 2351,
      "Ġ3": 2352,
      "Ġ4": 2353,
      "Ġmed": 2354,
      "Ġbright": 2355,
      "Ġfig": 2356,
      "Ġbeyond": 2357,
      "ices": 2358,
      "ability": 2359,
      "Ġvan": 2360,
      "unic": 2361,
      "fords": 2362,
      "Ġcomply": 2363,
      "rud": 2364,
      "ĠOne": 2365,
      "new": 2366,
      "Ġgreatest": 2367,
      "soci": 2368,
      "Ġcontr": 2369,
      "Ġpleasant": 2370,
      "ignor": 2371,
      "Ġbelieved": 2372,
      "Ġadvantage": 2373,
      "Ġdream": 2374,
      "Ġdaughters": 2375,
      "after": 2376,
      "Ġpromise": 2377,
      "happy": 2378,
      "ĠEngland": 2379,
      "Ġsweet": 2380,
      "Ġsoul": 2381,
      "aj": 2382,
      "bo": 2383,
      "ium": 2384,
      "such": 2385,
      "Ġtaking": 2386,
      "Ġcab": 2387,
      "othes": 2388,
      "Ġnote": 2389,
      "Ġstreet": 2390,
      "Ġconsequ": 2391,
      "ĠBr": 2392,
      "cked": 2393,
      "Ġvill": 2394,
      "astle": 2395,
      "Ġlips": 2396,
      "ĠPemberley": 2397,
      "Ġexpressed": 2398,
      "ĠRosings": 2399,
      "hess": 2400,
      "uchess": 2401,
      "Ġchance": 2402,
      "Ġslow": 2403,
      "Ġagreeable": 2404,
      "Ġrepeated": 2405,
      "Ġassured": 2406,
      "At": 2407,
      "Project": 2408,
      "acy": 2409,
      "ev": 2410,
      "pol": 2411,
      "Ġtears": 2412,
      "Ġtalked": 2413,
      "ines": 2414,
      "Ġsimp": 2415,
      "reg": 2416,
      "Ġfing": 2417,
      "ature": 2418,
      "entions": 2419,
      "Ġgre": 2420,
      "Ġassoci": 2421,
      "Ġnotice": 2422,
      "Ġsuper": 2423,
      "Ġsea": 2424,
      "Ġexceed": 2425,
      "cket": 2426,
      "peci": 2427,
      "ĠClerval": 2428,
      "off": 2429,
      "arest": 2430,
      "cience": 2431,
      "nothing": 2432,
      "ĠRabbit": 2433,
      "Ġdistance": 2434,
      "Ġsupport": 2435,
      "Ġearnest": 2436,
      "shire": 2437,
      "Ġdiscovered": 2438,
      "Ġassure": 2439,
      "Ġcrime": 2440,
      "Ġinteresting": 2441,
      "Ġgirls": 2442,
      "Ġwalking": 2443,
      "Ġsteps": 2444,
      "Ġspirit": 2445,
      "work": 2446,
      "Ġdisappoint": 2447,
      "Ġbitter": 2448,
      "ĠTHE": 2449,
      "Ġexactly": 2450,
      "fordshire": 2451,
      "action": 2452,
      "dist": 2453,
      "kn": 2454,
      "lu": 2455,
      "mn": 2456,
      "oid": 2457,
      "pri": 2458,
      "time": 2459,
      "Ġage": 2460,
      "Ġwild": 2461,
      "Ġmid": 2462,
      "Ġbu": 2463,
      "Ġce": 2464,
      "Ġcre": 2465,
      "Ġcredit": 2466,
      "Ġeff": 2467,
      "stairs": 2468,
      "Ġyouth": 2469,
      "sem": 2470,
      "vert": 2471,
      "ctor": 2472,
      "Ġformed": 2473,
      "ĠAd": 2474,
      "Ġfee": 2475,
      "Ġshut": 2476,
      "osing": 2477,
      "Ġrushed": 2478,
      "elt": 2479,
      "agement": 2480,
      "Ġroad": 2481,
      "Ġobt": 2482,
      "Ġenter": 2483,
      "Ġaccess": 2484,
      "Ġplan": 2485,
      "ceiving": 2486,
      "ized": 2487,
      "Ġkept": 2488,
      "Ġcarried": 2489,
      "Ġcuriosity": 2490,
      "Ġcircumstances": 2491,
      "Ġnecessary": 2492,
      "culiar": 2493,
      "Car": 2494,
      "St": 2495,
      "che": 2496,
      "car": 2497,
      "gin": 2498,
      "hum": 2499,
      "ler": 2500,
      "place": 2501,
      "said": 2502,
      "Ġtrem": 2503,
      "Ġwand": 2504,
      "outh": 2505,
      "Ġbody": 2506,
      "ones": 2507,
      "Ġcut": 2508,
      "Ġfat": 2509,
      "Ġdance": 2510,
      "Ġheaven": 2511,
      "Ġpict": 2512,
      "stood": 2513,
      "Ġreached": 2514,
      "lips": 2515,
      "ĠHun": 2516,
      "think": 2517,
      "ĠBe": 2518,
      "ĠBaker": 2519,
      "Ġexcellent": 2520,
      "raw": 2521,
      "Ġvol": 2522,
      "ague": 2523,
      "Ġthemselves": 2524,
      "idered": 2525,
      "ĠFran": 2526,
      "Ġremain": 2527,
      "Ġremem": 2528,
      "Ġplain": 2529,
      "Ġcommunic": 2530,
      "Ġloved": 2531,
      "Ġminute": 2532,
      "Ġconsiderable": 2533,
      "laimed": 2534,
      "Ġserious": 2535,
      "Ġsuffer": 2536,
      "Ġpolice": 2537,
      "Ġstruck": 2538,
      "Ġcivility": 2539,
      "Ġwishes": 2540,
      "Ġconceal": 2541,
      "did": 2542,
      "iend": 2543,
      "lish": 2544,
      "round": 2545,
      "Ġice": 2546,
      "inct": 2547,
      "edding": 2548,
      "oner": 2549,
      "Ġdin": 2550,
      "org": 2551,
      "ask": 2552,
      "Ġhealth": 2553,
      "imon": 2554,
      "Ġreceive": 2555,
      "ĠMarch": 2556,
      "Ġsave": 2557,
      "ourgh": 2558,
      "race": 2559,
      "esty": 2560,
      "ĠDuchess": 2561,
      "ending": 2562,
      "ression": 2563,
      "Ġspo": 2564,
      "ertfordshire": 2565,
      "ĠFelix": 2566,
      "Ġentreat": 2567,
      "Ġwriting": 2568,
      "Ġcourt": 2569,
      "Ġevent": 2570,
      "Ġintell": 2571,
      "Ġlaid": 2572,
      "Ġinterrupt": 2573,
      "ĠArchive": 2574,
      "ashion": 2575,
      "Ġsymp": 2576,
      "Ġpretty": 2577,
      "Ġcomplete": 2578,
      "Very": 2579,
      "cceed": 2580,
      "cCar": 2581,
      "gl": 2582,
      "go": 2583,
      "gutenberg": 2584,
      "iod": 2585,
      "uff": 2586,
      "held": 2587,
      "inte": 2588,
      "incip": 2589,
      "ont": 2590,
      "Ġheld": 2591,
      "Ġpost": 2592,
      "anch": 2593,
      "herself": 2594,
      "urch": 2595,
      "ĠDorm": 2596,
      "Ġcompany": 2597,
      "Ġdesign": 2598,
      "Ġreply": 2599,
      "ĠNot": 2600,
      "Ġprep": 2601,
      "Ġtrademark": 2602,
      "Ġblood": 2603,
      "Ġgentlemen": 2604,
      "Ġhandsome": 2605,
      "Ġextra": 2606,
      "undred": 2607,
      "fortunate": 2608,
      "Ġendeavoured": 2609,
      "Ġfacts": 2610,
      "Ġcottage": 2611,
      "ĠeBook": 2612,
      "cCarthy": 2613,
      "ĠDormouse": 2614,
      "94": 2615,
      "Bingley": 2616,
      "Now": 2617,
      "cise": 2618,
      "ges": 2619,
      "great": 2620,
      "house": 2621,
      "min": 2622,
      "much": 2623,
      "oh": 2624,
      "rade": 2625,
      "Ġtrees": 2626,
      "has": 2627,
      "ndeed": 2628,
      "erhaps": 2629,
      "Ġmer": 2630,
      "Ġmark": 2631,
      "Ġbank": 2632,
      "Ġflo": 2633,
      "Ġpos": 2634,
      "Ġbear": 2635,
      "Ġlangu": 2636,
      "ste": 2637,
      "Ġforget": 2638,
      "Ġanim": 2639,
      "Ġsafe": 2640,
      "ift": 2641,
      "ilt": 2642,
      "then": 2643,
      "ĠWhy": 2644,
      "ounds": 2645,
      "ume": 2646,
      "Ġspite": 2647,
      "Ġaround": 2648,
      "ĠJustine": 2649,
      "uding": 2650,
      "ize": 2651,
      "ordinary": 2652,
      "Ġloc": 2653,
      "Ġfollow": 2654,
      "Ġwaited": 2655,
      "Ġdirection": 2656,
      "Ġturning": 2657,
      "ibly": 2658,
      "Ġexpression": 2659,
      "Ġjoined": 2660,
      "Ġlearn": 2661,
      "Ġutter": 2662,
      "bling": 2663,
      "ded": 2664,
      "jud": 2665,
      "lay": 2666,
      "never": 2667,
      "rid": 2668,
      "than": 2669,
      "whe": 2670,
      "Ġignor": 2671,
      "Ġbad": 2672,
      "Ġcop": 2673,
      "Ġfresh": 2674,
      "Ġdr": 2675,
      "orn": 2676,
      "ats": 2677,
      "Ġpath": 2678,
      "Ġpract": 2679,
      "Ġeld": 2680,
      "owers": 2681,
      "Ġrelie": 2682,
      "ality": 2683,
      "Ġmem": 2684,
      "Ġsake": 2685,
      "Ġsto": 2686,
      "pper": 2687,
      "keep": 2688,
      "gel": 2689,
      "ĠAfter": 2690,
      "thought": 2691,
      "ĠBourgh": 2692,
      "Ġexec": 2693,
      "estrade": 2694,
      "ĠWh": 2695,
      "ĠLord": 2696,
      "Ġvain": 2697,
      "pered": 2698,
      "ĠCh": 2699,
      "Ġunable": 2700,
      "Ġwhatever": 2701,
      "Ġdispl": 2702,
      "ĠRuc": 2703,
      "Ġspeaking": 2704,
      "Ġfami": 2705,
      "Ġdiscover": 2706,
      "Ġincreas": 2707,
      "Ġrelations": 2708,
      "Ġarrival": 2709,
      "Ġparticularly": 2710,
      "Ġopportunity": 2711,
      "Ġanxious": 2712,
      "Ġmentioned": 2713,
      "Ġoccurred": 2714,
      "Ġemploy": 2715,
      "Ġtemper": 2716,
      "Ġwitness": 2717,
      "Ġfigure": 2718,
      "known": 2719,
      "Ah": 2720,
      "bre": 2721,
      "bet": 2722,
      "mar": 2723,
      "may": 2724,
      "occ": 2725,
      "pid": 2726,
      "va": 2727,
      "vis": 2728,
      "Â£": 2729,
      "Ġwater": 2730,
      "Ġsit": 2731,
      "Ġsad": 2732,
      "erg": 2733,
      "Ġmiss": 2734,
      "Ġbook": 2735,
      "Ġbreat": 2736,
      "enry": 2737,
      "Ġdied": 2738,
      "Ġinj": 2739,
      "Ġreach": 2740,
      "about": 2741,
      "Ġdelic": 2742,
      "ĠBy": 2743,
      "ously": 2744,
      "Ġworth": 2745,
      "Ġalong": 2746,
      "Ġliving": 2747,
      "ption": 2748,
      "bered": 2749,
      "Ġperform": 2750,
      "Ġperiod": 2751,
      "Ġimpat": 2752,
      "Ġmarked": 2753,
      "Ġinstead": 2754,
      "Ġconfess": 2755,
      "Ġdetail": 2756,
      "ĠLadyship": 2757,
      "Ġstranger": 2758,
      "ograph": 2759,
      "ibility": 2760,
      "Ġdeeply": 2761,
      "grat": 2762,
      "Ġweeks": 2763,
      "Ġequal": 2764,
      "Ġprobably": 2765,
      "Ġneighbourhood": 2766,
      "Ġmiles": 2767,
      "Ġmountains": 2768,
      "Ġabsolutely": 2769,
      "CT": 2770,
      "With": 2771,
      "certain": 2772,
      "ech": 2773,
      "fer": 2774,
      "rance": 2775,
      "sister": 2776,
      "zz": 2777,
      "heart": 2778,
      "into": 2779,
      "reng": 2780,
      "itated": 2781,
      "Ġcry": 2782,
      "Ġdress": 2783,
      "Ġhundred": 2784,
      "let": 2785,
      "alse": 2786,
      "ĠMcCarthy": 2787,
      "Ġsugg": 2788,
      "ustom": 2789,
      "olation": 2790,
      "together": 2791,
      "emed": 2792,
      "ĠWell": 2793,
      "ĠLicense": 2794,
      "Ġorder": 2795,
      "Ġenem": 2796,
      "being": 2797,
      "Ġeverybody": 2798,
      "hilips": 2799,
      "retch": 2800,
      "acquaint": 2801,
      "Ġplease": 2802,
      "Ġwrong": 2803,
      "Ġwrote": 2804,
      "Ġclosed": 2805,
      "Ġblue": 2806,
      "eneva": 2807,
      "Ġintim": 2808,
      "Ġgetting": 2809,
      "Ġpeculiar": 2810,
      "william": 2811,
      "Ġcorner": 2812,
      "Ġinvitation": 2813,
      "duce": 2814,
      "Ġjoin": 2815,
      "Ġdrove": 2816,
      "Ġsorrow": 2817,
      "Ġastonishment": 2818,
      "Ġ1894": 2819,
      "itzwilliam": 2820,
      "Ġinnocent": 2821,
      "Ġheavy": 2822,
      "Ġsolemn": 2823,
      "Ġexistence": 2824,
      "pecially": 2825,
      "Copyright": 2826,
      "Darcy": 2827,
      "]]": 2828,
      "bly": 2829,
      "ives": 2830,
      "rum": 2831,
      "ĠÂ£": 2832,
      "Ġtry": 2833,
      "Ġauth": 2834,
      "rel": 2835,
      "Ġmus": 2836,
      "ency": 2837,
      "Ġfond": 2838,
      "Ġfashion": 2839,
      "Ġded": 2840,
      "anation": 2841,
      "Ġhall": 2842,
      "ented": 2843,
      "Ġrecomm": 2844,
      "Ġhist": 2845,
      "ĠSimon": 2846,
      "ardon": 2847,
      "agree": 2848,
      "arer": 2849,
      "assion": 2850,
      "ruction": 2851,
      "ĠĠĠĠĠĠĠĠĠĠĠĠĠĠĠĠĠĠĠĠĠĠĠĠ": 2852,
      "Ġpassion": 2853,
      "ext": 2854,
      "Ġchief": 2855,
      "ictor": 2856,
      "Ġemb": 2857,
      "ailed": 2858,
      "Ġwindows": 2859,
      "himself": 2860,
      "ĠForster": 2861,
      "Ġprovide": 2862,
      "Ġconcerning": 2863,
      "Ġsingle": 2864,
      "Ġfinished": 2865,
      "Ġquickly": 2866,
      "ĠAllen": 2867,
      "morrow": 2868,
      "Ġimportance": 2869,
      "Ġdifficult": 2870,
      "Ġpermission": 2871,
      "Ġfurther": 2872,
      "Ġgloom": 2873,
      "Ġsuspic": 2874,
      "Ġeffort": 2875,
      "ĠRucastle": 2876,
      "),": 2877,
      "Bennet": 2878,
      "ED": 2879,
      "IS": 2880,
      "[_": 2881,
      "ape": 2882,
      "came": 2883,
      "gged": 2884,
      "hold": 2885,
      "mis": 2886,
      "might": 2887,
      "ues": 2888,
      "uce": 2889,
      "hend": 2890,
      "head": 2891,
      "iny": 2892,
      "Ġwat": 2893,
      "Ġwedding": 2894,
      "Ġsnow": 2895,
      "rehend": 2896,
      "erful": 2897,
      "Ġmag": 2898,
      "Ġboy": 2899,
      "Ġfirm": 2900,
      "Ġfiend": 2901,
      "lly": 2902,
      "Ġpen": 2903,
      "icked": 2904,
      "sec": 2905,
      "see": 2906,
      "Ġrend": 2907,
      "illar": 2908,
      "ections": 2909,
      "Ġstreng": 2910,
      "ours": 2911,
      "ĠAg": 2912,
      "resp": 2913,
      "these": 2914,
      "Ġshook": 2915,
      "Ġnoble": 2916,
      "Ġleg": 2917,
      "ĠPar": 2918,
      "Ġknowing": 2919,
      "Ġshar": 2920,
      "Ġencour": 2921,
      "blem": 2922,
      "Ġard": 2923,
      "Ġtwenty": 2924,
      "Ġoffer": 2925,
      "Ġrooms": 2926,
      "Ġtrouble": 2927,
      "Ġjustice": 2928,
      "Ġresult": 2929,
      "Here": 2930,
      "Ġpossessed": 2931,
      "Ġadvice": 2932,
      "Ġregret": 2933,
      "Ġwait": 2934,
      "Ġexclaimed": 2935,
      "Ġcurious": 2936,
      "Ġvisitor": 2937,
      "Ġhighly": 2938,
      "Ġacquainted": 2939,
      "Ġsingular": 2940,
      "Ġprofession": 2941,
      "Ġapproach": 2942,
      "Ġgrave": 2943,
      "looking": 2944,
      "Ġbeginning": 2945,
      "._]]": 2946,
      "Ġdreadful": 2947,
      "Ġgrief": 2948,
      "Ġduty": 2949,
      "Ġadmiration": 2950,
      "Ġsimple": 2951,
      "Ġassociated": 2952,
      "Ġexceedingly": 2953,
      "Ġdinner": 2954,
      "Ġfloor": 2955,
      "IN": 2956,
      "Lady": 2957,
      "Sherlock": 2958,
      "ace": 2959,
      "cul": 2960,
      "dle": 2961,
      "ees": 2962,
      "rate": 2963,
      "Ġtou": 2964,
      "Ġtall": 2965,
      "Ġtale": 2966,
      "reason": 2967,
      "Ġcas": 2968,
      "Ġforced": 2969,
      "rill": 2970,
      "Ġwel": 2971,
      "ĠMar": 2972,
      "terday": 2973,
      "Ġsuf": 2974,
      "Ġstat": 2975,
      "ĠHertfordshire": 2976,
      "ĠHenry": 2977,
      "ifferent": 2978,
      "ĠSc": 2979,
      "ĠSw": 2980,
      "ilos": 2981,
      "Ġshowed": 2982,
      "Ġvirt": 2983,
      "using": 2984,
      "isted": 2985,
      "ively": 2986,
      "Ġunless": 2987,
      "Ġcomes": 2988,
      "Ġproper": 2989,
      "Ġprospect": 2990,
      "Ġliked": 2991,
      "ĠPhilips": 2992,
      "Ġimm": 2993,
      "derer": 2994,
      "ĠHere": 2995,
      "assed": 2996,
      "Ġremoved": 2997,
      "Ġthinking": 2998,
      "Ġsays": 2999,
      "Ġoffice": 3000,
      "range": 3001,
      "Ġpocket": 3002,
      "Ġconsidered": 3003,
      "Ġpresence": 3004,
      "Ġcourage": 3005,
      "Ġlovely": 3006,
      "Ġrefund": 3007,
      "Ġrapid": 3008,
      "Ġgiving": 3009,
      "Ġhearing": 3010,
      "Ġtrave": 3011,
      "Ġpromised": 3012,
      "Ġabsence": 3013,
      "Ġlisten": 3014,
      "Ġobserve": 3015,
      "Ġsensations": 3016,
      "Ġdecla": 3017,
      "ĠVictor": 3018,
      "Ġmurder": 3019,
      "Ġaffair": 3020,
      "Ġimportant": 3021,
      "Ġdrawing": 3022,
      "Ġcapable": 3023,
      "Ġstanding": 3024,
      "Ġforgot": 3025,
      "stein": 3026,
      "Ġsharp": 3027,
      "ilosop": 3028,
      "Come": 3029,
      "ES": 3030,
      "OU": 3031,
      "One": 3032,
      "RA": 3033,
      "Who": 3034,
      "ah": 3035,
      "aves": 3036,
      "down": 3037,
      "ghed": 3038,
      "low": 3039,
      "Ġtreat": 3040,
      "Ġtax": 3041,
      "Ġwww": 3042,
      "Ġsli": 3043,
      "Ġsick": 3044,
      "Ġmatch": 3045,
      "Ġbless": 3046,
      "Ġbooks": 3047,
      "Ġcli": 3048,
      "Ġcaught": 3049,
      "Ġfurn": 3050,
      "Ġfalse": 3051,
      "Ġder": 3052,
      "atures": 3053,
      "Ġhig": 3054,
      "Ġlose": 3055,
      "Ġloud": 3056,
      "Ġgained": 3057,
      "urs": 3058,
      "adv": 3059,
      "ĠMaj": 3060,
      "Ġsucceed": 3061,
      "Ġstri": 3062,
      "ĠHare": 3063,
      "thr": 3064,
      "Ġunf": 3065,
      "Ġafford": 3066,
      "earance": 3067,
      "Ġseek": 3068,
      "Ġspot": 3069,
      "Ġusing": 3070,
      "Ġlooks": 3071,
      "Ġpassage": 3072,
      "achment": 3073,
      "Ġyounger": 3074,
      "Ġevents": 3075,
      "Ġexplain": 3076,
      "Ġhoped": 3077,
      "Ġbroken": 3078,
      "Ġofficers": 3079,
      "Ġtrans": 3080,
      "Ġmistaken": 3081,
      "Ġangry": 3082,
      "Ġeagerly": 3083,
      "Ġstarted": 3084,
      "Ġstudy": 3085,
      "Ġpriv": 3086,
      "For": 3087,
      "Her": 3088,
      "Is": 3089,
      "gment": 3090,
      "hus": 3091,
      "mber": 3092,
      "oly": 3093,
      "sat": 3094,
      "Ġer": 3095,
      "Ġmakes": 3096,
      "Ġcost": 3097,
      "Ġcross": 3098,
      "Ġclaim": 3099,
      "Ġfr": 3100,
      "Ġdie": 3101,
      "attered": 3102,
      "Ġline": 3103,
      "Ġloss": 3104,
      "Ġthin": 3105,
      "Ġweak": 3106,
      "ters": 3107,
      "Ġstone": 3108,
      "ĠHurst": 3109,
      "Ġseven": 3110,
      "ĠAust": 3111,
      "Ġexert": 3112,
      "Ġshock": 3113,
      "ethod": 3114,
      "Ġunfortunate": 3115,
      "ortion": 3116,
      "aste": 3117,
      "lair": 3118,
      "ĠGeneva": 3119,
      "ishing": 3120,
      "loved": 3121,
      "Ġfail": 3122,
      "Ġappears": 3123,
      "Ġdesert": 3124,
      "Ġreport": 3125,
      "udden": 3126,
      "Ġaccord": 3127,
      "Ġprincip": 3128,
      "Ġspeed": 3129,
      "Ġdistur": 3130,
      "Ġsupposed": 3131,
      "Ġblind": 3132,
      "Ġevidence": 3133,
      "ception": 3134,
      "myself": 3135,
      "Ġwanted": 3136,
      "brary": 3137,
      "Ġsentence": 3138,
      "Ġhurry": 3139,
      "Ġconcern": 3140,
      "Ġlaughed": 3141,
      "Ġfavourite": 3142,
      "Ġsurround": 3143,
      "Ġconnection": 3144,
      "Ġcalm": 3145,
      "Ġcolour": 3146,
      "Ġfrequently": 3147,
      "Ġslowly": 3148,
      "ohn": 3149,
      "Ġstrength": 3150,
      "SE": 3151,
      "cr": 3152,
      "first": 3153,
      "ses": 3154,
      "Ġtend": 3155,
      "Ġmort": 3156,
      "Ġmaid": 3157,
      "Ġbir": 3158,
      "Ġbott": 3159,
      "enced": 3160,
      "Ġfif": 3161,
      "Ġfast": 3162,
      "Ġda": 3163,
      "Ġdressed": 3164,
      "arrow": 3165,
      "Ġinha": 3166,
      "Ġpu": 3167,
      "Ġpity": 3168,
      "oted": 3169,
      "Ġeat": 3170,
      "Ġeight": 3171,
      "iments": 3172,
      "add": 3173,
      "Ġann": 3174,
      "ify": 3175,
      "Ġdefect": 3176,
      "Ġneg": 3177,
      "Ġshow": 3178,
      "Ġshown": 3179,
      "Ġyours": 3180,
      "ĠTheir": 3181,
      "Ġlead": 3182,
      "Ġleaving": 3183,
      "hank": 3184,
      "Ġunhappy": 3185,
      "Ġalarm": 3186,
      "ĠEvery": 3187,
      "venge": 3188,
      "Ġproduced": 3189,
      "Ġliber": 3190,
      "Ġjury": 3191,
      "Ġquitted": 3192,
      "urning": 3193,
      "Ġdisposition": 3194,
      "Ġperceived": 3195,
      "Ġarg": 3196,
      "Ġgold": 3197,
      "Ġaddressed": 3198,
      "without": 3199,
      "Ġmoments": 3200,
      "iction": 3201,
      "Ġwomen": 3202,
      "nowled": 3203,
      "affect": 3204,
      "Ġgenerally": 3205,
      "Ġdrawn": 3206,
      "Ġsensible": 3207,
      "Ġsufficient": 3208,
      "Ġlearned": 3209,
      "Ġmadam": 3210,
      "Ġanxiety": 3211,
      "ĠEnglish": 3212,
      "Ġsmiling": 3213,
      "ĠXX": 3214,
      "Ġvarious": 3215,
      "Ġquietly": 3216,
      "Ġgratitude": 3217,
      "Ġaccomp": 3218,
      "Ġmisfortune": 3219,
      "luence": 3220,
      "Ġspoken": 3221,
      "Ġintellig": 3222,
      "ancholy": 3223,
      "Ġextraordinary": 3224,
      "Ġmemory": 3225,
      "Ġauthor": 3226,
      "Ġhistory": 3227,
      "After": 3228,
      "Indeed": 3229,
      "LI": 3230,
      "ON": 3231,
      "Pray": 3232,
      "cence": 3233,
      "det": 3234,
      "fl": 3235,
      "found": 3236,
      "made": 3237,
      "overy": 3238,
      "phe": 3239,
      "poss": 3240,
      "pillar": 3241,
      "ys": 3242,
      "Ġtempt": 3243,
      "Ġack": 3244,
      "rehen": 3245,
      "Ġmouth": 3246,
      "Ġcrow": 3247,
      "Ġpra": 3248,
      "Ġpounds": 3249,
      "Ġnice": 3250,
      "Ġhide": 3251,
      "ometimes": 3252,
      "Ġbelong": 3253,
      "Ġbeheld": 3254,
      "ics": 3255,
      "verse": 3256,
      "Ġgaz": 3257,
      "irty": 3258,
      "Ġanger": 3259,
      "ills": 3260,
      "ĠHad": 3261,
      "ational": 3262,
      "pping": 3263,
      "Ġdearest": 3264,
      "Ġrid": 3265,
      "Ġabhor": 3266,
      "law": 3267,
      "Ġproblem": 3268,
      "delight": 3269,
      "ĠFitzwilliam": 3270,
      "ĠJohn": 3271,
      "Ġdesired": 3272,
      "necess": 3273,
      "conf": 3274,
      "Ġpassing": 3275,
      "Ġprison": 3276,
      "Ġspend": 3277,
      "Ġspeech": 3278,
      "Ġclothes": 3279,
      "Heading": 3280,
      "Ġfinding": 3281,
      "Ġsecure": 3282,
      "Ġmatters": 3283,
      "spector": 3284,
      "eks": 3285,
      "Ġreturning": 3286,
      "Ġexcess": 3287,
      "aterpillar": 3288,
      "kenstein": 3289,
      "Ġdelighted": 3290,
      "Ġresolution": 3291,
      "Ġexplanation": 3292,
      "Ġmurderer": 3293,
      "Ġequally": 3294,
      "Ġespecially": 3295,
      "Ġservant": 3296,
      "Ġpersuaded": 3297,
      "feelings": 3298,
      "Ġdestroy": 3299,
      "Ġlaughing": 3300,
      "Ġinquiries": 3301,
      "Ġremembered": 3302,
      "interest": 3303,
      "keeper": 3304,
      "ergy": 3305,
      "gratul": 3306,
      "Ġsuffered": 3307,
      "ĠAusten": 3308,
      "rehens": 3309,
      ":--": 3310,
      "By": 3311,
      "From": 3312,
      "UT": 3313,
      "Wickham": 3314,
      "aff": 3315,
      "electronic": 3316,
      "jo": 3317,
      "kes": 3318,
      "ze": 3319,
      "heard": 3320,
      "Ġwall": 3321,
      "Ġsn": 3322,
      "Ġsal": 3323,
      "Ġori": 3324,
      "ern": 3325,
      "Ġmater": 3326,
      "ital": 3327,
      "Ġcru": 3328,
      "Ġfaint": 3329,
      "Ġfield": 3330,
      "Ġdiv": 3331,
      "Ġdared": 3332,
      "Ġpi": 3333,
      "Ġniece": 3334,
      "Ġhot": 3335,
      "otograph": 3336,
      "Ġlod": 3337,
      "uted": 3338,
      "set": 3339,
      "imin": 3340,
      "Ġreceiving": 3341,
      "ets": 3342,
      "ĠMor": 3343,
      "lig": 3344,
      "ĠAl": 3345,
      "ĠSome": 3346,
      "Ġdog": 3347,
      "ĠThese": 3348,
      "ĠLestrade": 3349,
      "Ġwholly": 3350,
      "antic": 3351,
      "arther": 3352,
      "agers": 3353,
      "Ġprog": 3354,
      "Ġoutside": 3355,
      "Ġknows": 3356,
      "teen": 3357,
      "Ġdisp": 3358,
      "Ġdidn": 3359,
      "ĠFrom": 3360,
      "Ġattended": 3361,
      "Ġattentions": 3362,
      "rang": 3363,
      "soon": 3364,
      "spir": 3365,
      "Ġunderstood": 3366,
      "Ġmeaning": 3367,
      "Ġrecovered": 3368,
      "Ġnative": 3369,
      "Ġrage": 3370,
      "Ġguard": 3371,
      "Ġcreatures": 3372,
      "Ġmonster": 3373,
      "Ġrelated": 3374,
      "ĠHowever": 3375,
      "Ġmoon": 3376,
      "contin": 3377,
      "Ġarms": 3378,
      "eased": 3379,
      "Ġprotect": 3380,
      "Nothing": 3381,
      "chair": 3382,
      "ENT": 3383,
      "Ġeduc": 3384,
      "Ġhastily": 3385,
      "ĠeBooks": 3386,
      "Ġavoid": 3387,
      "Ġproceeded": 3388,
      "cended": 3389,
      "Ġbeside": 3390,
      "Ġfrightened": 3391,
      "Ġexperience": 3392,
      "Ġsuperior": 3393,
      "Ġmiddle": 3394,
      "Ġlocated": 3395,
      "Ġcases": 3396,
      "Ġclient": 3397,
      "ĠMajesty": 3398,
      "Good": 3399,
      "Let": 3400,
      "OR": 3401,
      "Of": 3402,
      "gu": 3403,
      "iently": 3404,
      "oor": 3405,
      "rist": 3406,
      "sue": 3407,
      "two": 3408,
      "wom": 3409,
      "Ã¦": 3410,
      "Ġalive": 3411,
      "inc": 3412,
      "Ġwar": 3413,
      "Ġmethod": 3414,
      "onet": 3415,
      "Ġfro": 3416,
      "Ġfilled": 3417,
      "Ġfarther": 3418,
      "Ġdi": 3419,
      "Ġnarr": 3420,
      "Ġnames": 3421,
      "Ġnumber": 3422,
      "stery": 3423,
      "rif": 3424,
      "ĠMouse": 3425,
      "chief": 3426,
      "Ġcongratul": 3427,
      "Ġdelay": 3428,
      "Ġupstairs": 3429,
      "Ġrich": 3430,
      "ĠCar": 3431,
      "ĠCaterpillar": 3432,
      "Ġuncom": 3433,
      "Ġamuse": 3434,
      "ĠDe": 3435,
      "Ġagony": 3436,
      "Ġproc": 3437,
      "Ġproved": 3438,
      "Ġlie": 3439,
      "Ġadvert": 3440,
      "Ġspring": 3441,
      "Ġapplic": 3442,
      "----": 3443,
      "Ġobvious": 3444,
      "ruct": 3445,
      "Ġattend": 3446,
      "Ġgrasp": 3447,
      "ĠRoy": 3448,
      "Ġsche": 3449,
      "Ġpale": 3450,
      "athy": 3451,
      "ivid": 3452,
      "Ġideas": 3453,
      "Ġhorrible": 3454,
      "Ġquestions": 3455,
      "Ġaffectionate": 3456,
      "Ġadmire": 3457,
      "Ġincluding": 3458,
      "Ġconcerned": 3459,
      "Ġmoved": 3460,
      "Ġdirectly": 3461,
      "Ġrequest": 3462,
      "Ġremarkable": 3463,
      "Ġsummer": 3464,
      "pleasure": 3465,
      "Ġtranqu": 3466,
      "Ġcaused": 3467,
      "Ġbenef": 3468,
      "Ġcompliment": 3469,
      "Ġoccupied": 3470,
      "Ġescape": 3471,
      "Ġpicture": 3472,
      "Ġrendered": 3473,
      "ĠScot": 3474,
      "Chapter": 3475,
      "creat": 3476,
      "cause": 3477,
      "gar": 3478,
      "ls": 3479,
      "oes": 3480,
      "prom": 3481,
      "sm": 3482,
      "sford": 3483,
      "uished": 3484,
      "while": 3485,
      "Ġtrying": 3486,
      "Ġapol": 3487,
      "Ġwinter": 3488,
      "Ġscience": 3489,
      "erby": 3490,
      "Ġmut": 3491,
      "Ġcent": 3492,
      "Ġcovered": 3493,
      "Ġfate": 3494,
      "Ġtop": 3495,
      "Ġdate": 3496,
      "Ġdwell": 3497,
      "ĠIs": 3498,
      "ashed": 3499,
      "arily": 3500,
      "Ġpun": 3501,
      "letter": 3502,
      "âĢľ_": 3503,
      "Ġbell": 3504,
      "Ġbelow": 3505,
      "Ġbeloved": 3506,
      "Ġgame": 3507,
      "Ġgoose": 3508,
      "rob": 3509,
      "liance": 3510,
      "Ġsoft": 3511,
      "Ġsolic": 3512,
      "Ġsepar": 3513,
      "amed": 3514,
      "que": 3515,
      "quest": 3516,
      "Ġfeatures": 3517,
      "Ġneck": 3518,
      "uss": 3519,
      "osure": 3520,
      "unte": 3521,
      "Ġrain": 3522,
      "ĠCat": 3523,
      "ĠDr": 3524,
      "Ġproof": 3525,
      "umb": 3526,
      "els": 3527,
      "Ġlibrary": 3528,
      "Ġquit": 3529,
      "Ġshare": 3530,
      "Ġsprang": 3531,
      "erty": 3532,
      "Ġgover": 3533,
      "ĠOR": 3534,
      "ĠOf": 3535,
      "Ġattachment": 3536,
      "inted": 3537,
      "Ġaccident": 3538,
      "Ġendured": 3539,
      "Ġtrain": 3540,
      "Ġcloud": 3541,
      "Ġacqu": 3542,
      "supp": 3543,
      "Ġglance": 3544,
      "Ġglass": 3545,
      "racted": 3546,
      "ictim": 3547,
      "hard": 3548,
      "Ġchanged": 3549,
      "import": 3550,
      "Ġexcuse": 3551,
      "Ġcheck": 3552,
      "Ġwonderful": 3553,
      "Ġdecided": 3554,
      "meric": 3555,
      "Ġmeeting": 3556,
      "Ġdirected": 3557,
      "Ġapproached": 3558,
      "Ġdistributing": 3559,
      "Ġsmiled": 3560,
      "ounced": 3561,
      "Ġpersuade": 3562,
      "Ġrunning": 3563,
      "Ġdifficulty": 3564,
      "Ġjudge": 3565,
      "Ġdestroyed": 3566,
      "Ġwatching": 3567,
      "shall": 3568,
      "Ġriver": 3569,
      "Ġextremely": 3570,
      "Ġconsequence": 3571,
      "Ġgrey": 3572,
      "Ġignorant": 3573,
      "Ġincreased": 3574,
      "Ġenemy": 3575,
      "agreeable": 3576,
      "satisf": 3577,
      "Ġorigin": 3578,
      "Ġapolog": 3579,
      "Ar": 3580,
      "All": 3581,
      "RO": 3582,
      "bout": 3583,
      "ches": 3584,
      "felt": 3585,
      "ires": 3586,
      "leness": 3587,
      "lancholy": 3588,
      "ored": 3589,
      "pet": 3590,
      "rene": 3591,
      "Ġbur": 3592,
      "Ġfan": 3593,
      "Ġfood": 3594,
      "Ġfool": 3595,
      "lling": 3596,
      "Ġpowers": 3597,
      "Ġhang": 3598,
      "Ġlink": 3599,
      "Ġlake": 3600,
      "owards": 3601,
      "idently": 3602,
      "Ġthreat": 3603,
      "Ġforce": 3604,
      "Ġmelancholy": 3605,
      "Ġseized": 3606,
      "Ġconject": 3607,
      "Ġdem": 3608,
      "Ġdecl": 3609,
      "quare": 3610,
      "thur": 3611,
      "ĠSometimes": 3612,
      "ils": 3613,
      "Ġfeared": 3614,
      "Ġshout": 3615,
      "ĠLe": 3616,
      "ouses": 3617,
      "Ġworse": 3618,
      "Ġwhenever": 3619,
      "elve": 3620,
      "Ġdislike": 3621,
      "Ġovercome": 3622,
      "Ġtwice": 3623,
      "Ġourselves": 3624,
      "Ġdesir": 3625,
      "Ġimpression": 3626,
      "Ġmarrying": 3627,
      "Ġpray": 3628,
      "Ġthrown": 3629,
      "aughter": 3630,
      "rences": 3631,
      "Ġchoose": 3632,
      "ervation": 3633,
      "Ġraised": 3634,
      "Ġassur": 3635,
      "Ġreading": 3636,
      "Ġindul": 3637,
      "Ġindign": 3638,
      "Ġexcited": 3639,
      "Ġnorth": 3640,
      "Ġfears": 3641,
      "afie": 3642,
      "Ġfortnight": 3643,
      "Ġsatisfaction": 3644,
      "ĠDoctor": 3645,
      "Ġcoat": 3646,
      "Ġfortunate": 3647,
      "Ġbox": 3648,
      "Ġprobable": 3649,
      "Ġfallen": 3650,
      "Ġofficial": 3651,
      "Ġstrugg": 3652,
      "Ġcivil": 3653,
      "Ġyesterday": 3654,
      "however": 3655,
      "country": 3656,
      "Ġcopies": 3657,
      "Ġfamiliar": 3658,
      "Ġmusic": 3659,
      "erbyshire": 3660,
      "**": 3661,
      "An": 3662,
      "Thank": 3663,
      "bus": 3664,
      "cor": 3665,
      "either": 3666,
      "mit": 3667,
      "mom": 3668,
      "ric": 3669,
      "spe": 3670,
      "tw": 3671,
      "ulf": 3672,
      "uable": 3673,
      "wind": 3674,
      "ĠâĢĻ": 3675,
      "Ġty": 3676,
      "hest": 3677,
      "inite": 3678,
      "hall": 3679,
      "having": 3680,
      "hamed": 3681,
      "Ġmach": 3682,
      "Ġbird": 3683,
      "Ġfly": 3684,
      "Ġfun": 3685,
      "atur": 3686,
      "Ġheight": 3687,
      "Ġpit": 3688,
      "Ġpull": 3689,
      "Ġpause": 3690,
      "Ġparent": 3691,
      "Ġnarrow": 3692,
      "omin": 3693,
      "Ġlying": 3694,
      "ldom": 3695,
      "Ġrenew": 3696,
      "Ġrevenge": 3697,
      "Ġthird": 3698,
      "ĠĠĠĠčĊ": 3699,
      "ille": 3700,
      "Ġsuit": 3701,
      "Ġstation": 3702,
      "Ġseated": 3703,
      "Ġconstant": 3704,
      "ĠWho": 3705,
      "Ġord": 3706,
      "ĠClair": 3707,
      "Ġalter": 3708,
      "Ġanybody": 3709,
      "eless": 3710,
      "onday": 3711,
      "Ġotherwise": 3712,
      "belie": 3713,
      "Ġapply": 3714,
      "Ġcomprehend": 3715,
      "righton": 3716,
      "sole": 3717,
      "Ġgrow": 3718,
      "Ġgrate": 3719,
      "Ġscen": 3720,
      "Ġconsent": 3721,
      "Ġconsolation": 3722,
      "Ġpleasing": 3723,
      "Ġresent": 3724,
      "Ġthrow": 3725,
      "Ġinstrum": 3726,
      "Ġintention": 3727,
      "Ġintended": 3728,
      "oubted": 3729,
      "aped": 3730,
      "Ġcarry": 3731,
      "Ġaffected": 3732,
      "Ġcheerful": 3733,
      "ĠYOU": 3734,
      "Ġopening": 3735,
      "Ġasking": 3736,
      "Ġimagination": 3737,
      "Ġprovided": 3738,
      "Ġinfluence": 3739,
      "Ġexplained": 3740,
      "Ġconviction": 3741,
      "Ġsounds": 3742,
      "Ġrequire": 3743,
      "Ġdropped": 3744,
      "Ġestate": 3745,
      "Ġcircumstance": 3746,
      "Ġaccepted": 3747,
      "Ġphilosop": 3748,
      "Ġphotograph": 3749,
      "ification": 3750,
      "Ġvex": 3751,
      "ĠHunsford": 3752,
      "Ġposition": 3753,
      "Ġlanguage": 3754,
      "visit": 3755,
      "Ġsuggest": 3756,
      "Ġargum": 3757,
      "woman": 3758,
      "Ġdemand": 3759,
      "Be": 3760,
      "CE": 3761,
      "Certain": 3762,
      "Charlotte": 3763,
      "NT": 3764,
      "back": 3765,
      "bited": 3766,
      "dest": 3767,
      "fam": 3768,
      "gan": 3769,
      "gener": 3770,
      "line": 3771,
      "lott": 3772,
      "ms": 3773,
      "mind": 3774,
      "mother": 3775,
      "matter": 3776,
      "ture": 3777,
      "Ġ6": 3778,
      "Ġapart": 3779,
      "Ġwretch": 3780,
      "Ġsank": 3781,
      "ises": 3782,
      "ision": 3783,
      "Ġbent": 3784,
      "ences": 3785,
      "Ġcat": 3786,
      "Ġceased": 3787,
      "inguished": 3788,
      "ator": 3789,
      "Ġhes": 3790,
      "Ġpiece": 3791,
      "Ġpardon": 3792,
      "Ġhate": 3793,
      "otion": 3794,
      "Ġlater": 3795,
      "Ġlamp": 3796,
      "vere": 3797,
      "seen": 3798,
      "Ġgrew": 3799,
      "Ġthick": 3800,
      "Ġashamed": 3801,
      "always": 3802,
      "ries": 3803,
      "ĠMonday": 3804,
      "chool": 3805,
      "Ġsoot": 3806,
      "Ġsearch": 3807,
      "iff": 3808,
      "Ġconst": 3809,
      "ĠBrighton": 3810,
      "alled": 3811,
      "Ġexcl": 3812,
      "iling": 3813,
      "ĠWil": 3814,
      "Ġven": 3815,
      "Ġvictim": 3816,
      "osmer": 3817,
      "Ġring": 3818,
      "Ġrising": 3819,
      "Ġuneas": 3820,
      "Ġamid": 3821,
      "Ġprove": 3822,
      "liza": 3823,
      "Ġapparent": 3824,
      "Ġcompar": 3825,
      "ieces": 3826,
      "ĠJames": 3827,
      "Ġgreatly": 3828,
      "Ġentertain": 3829,
      "Ġhappen": 3830,
      "Ġconsult": 3831,
      "coming": 3832,
      "Ġspec": 3833,
      "Ġbelief": 3834,
      "Ġcommence": 3835,
      "Ġrefuse": 3836,
      "Ġkeen": 3837,
      "Ġdiscovery": 3838,
      "Ġreadily": 3839,
      "Ġgives": 3840,
      "Ġindic": 3841,
      "Ġregiment": 3842,
      "Ġcontinually": 3843,
      "Ġpoints": 3844,
      "anything": 3845,
      "Ġengagement": 3846,
      "disc": 3847,
      "Ġunderstanding": 3848,
      "Ġdelightful": 3849,
      "Ġparticulars": 3850,
      "Ġoppos": 3851,
      "Ġimmediate": 3852,
      "Ġdarkness": 3853,
      "Ġaware": 3854,
      "Ġwoods": 3855,
      "Ġbroke": 3856,
      "Ġproperty": 3857,
      "Ġreflections": 3858,
      "eyes": 3859,
      "Ġconnected": 3860,
      "morning": 3861,
      "Ġbeneath": 3862,
      "Ġanguish": 3863,
      "cannot": 3864,
      "Ġdrive": 3865,
      "Ġviolent": 3866,
      "natural": 3867,
      "Ġeleg": 3868,
      "Ġsky": 3869,
      "Ġmotive": 3870,
      "Ġdescribe": 3871,
      "Ġaccompl": 3872,
      "Ġwhispered": 3873,
      "coat": 3874,
      "something": 3875,
      "Ġcontrary": 3876,
      "Ġvillage": 3877,
      "Ġfinger": 3878,
      "Ġheavens": 3879,
      "Ġsympathy": 3880,
      "through": 3881,
      "Ġprivate": 3882,
      "uddenly": 3883,
      "Ġacknowled": 3884,
      "Ġpraise": 3885,
      "aturday": 3886,
      "Perhaps": 3887,
      "Will": 3888,
      "While": 3889,
      "gentle": 3890,
      "hope": 3891,
      "ker": 3892,
      "mas": 3893,
      "mist": 3894,
      "mine": 3895,
      "ple": 3896,
      "tic": 3897,
      "took": 3898,
      "towards": 3899,
      "uge": 3900,
      "ude": 3901,
      "yet": 3902,
      "yal": 3903,
      "Ġtask": 3904,
      "Ġtaste": 3905,
      "headed": 3906,
      "Ġsle": 3907,
      "Ġsize": 3908,
      "erves": 3909,
      "erman": 3910,
      "Ġmix": 3911,
      "iture": 3912,
      "Ġbor": 3913,
      "Ġfit": 3914,
      "Ġdancing": 3915,
      "essel": 3916,
      "esides": 3917,
      "atha": 3918,
      "Ġincon": 3919,
      "Ġpark": 3920,
      "Ġnerv": 3921,
      "Ġbeat": 3922,
      "Ġlately": 3923,
      "seemed": 3924,
      "ĠĠĠĠĠĠ": 3925,
      "Ġnoticed": 3926,
      "lies": 3927,
      "Ġstream": 3928,
      "Ġseason": 3929,
      "ource": 3930,
      "Ġconve": 3931,
      "Ġdep": 3932,
      "geon": 3933,
      "ĠAmeric": 3934,
      "ĠSafie": 3935,
      "Ġnephe": 3936,
      "empl": 3937,
      "ĠWind": 3938,
      "Ġvessel": 3939,
      "Ġordered": 3940,
      "Ġlean": 3941,
      "Ġrank": 3942,
      "Ġaloud": 3943,
      "asted": 3944,
      "ĠDerbyshire": 3945,
      "ĠEliza": 3946,
      "urner": 3947,
      "Ġfault": 3948,
      "Ġcompassion": 3949,
      "Ġparts": 3950,
      "Ġchamber": 3951,
      "Ġlonged": 3952,
      "Ġgoodness": 3953,
      "ĠRo": 3954,
      "Ġprev": 3955,
      "older": 3956,
      "Ġdistinct": 3957,
      "ignity": 3958,
      "Ġharm": 3959,
      "Ġglanced": 3960,
      "Ġchin": 3961,
      "Ġchurch": 3962,
      "Ġears": 3963,
      "Ġpossibly": 3964,
      "Ġevident": 3965,
      "Ġkey": 3966,
      "Ġrestr": 3967,
      "Ġindivid": 3968,
      "Ġcontinue": 3969,
      "Ġguilt": 3970,
      "noon": 3971,
      "oots": 3972,
      "ample": 3973,
      "Ġcompanions": 3974,
      "Ġpursue": 3975,
      "happiness": 3976,
      "Ġfinally": 3977,
      "Ġsunk": 3978,
      "course": 3979,
      "Ġtrif": 3980,
      "consider": 3981,
      "pleasant": 3982,
      "Ġbenevol": 3983,
      "favour": 3984,
      "Ġassistance": 3985,
      "Ġexamined": 3986,
      "Ġprevented": 3987,
      "Ġconclusion": 3988,
      "Ġdisappointment": 3989,
      "Ġeldest": 3990,
      "Ġdisplay": 3991,
      "zzled": 3992,
      "Ġforgotten": 3993,
      "Ġinhabit": 3994,
      "Ġprogress": 3995,
      "business": 3996,
      "moment": 3997,
      "Certainly": 3998,
      "Ġnephew": 3999,
      "IL": 4000,
      "Lizzy": 4001,
      "_.âĢĿ": 4002,
      "_,âĢĿ": 4003,
      "bing": 4004,
      "cing": 4005,
      "case": 4006,
      "lor": 4007,
      "opp": 4008,
      "pa": 4009,
      "pens": 4010,
      "saw": 4011,
      "uced": 4012,
      "hem": 4013,
      "Ġsought": 4014,
      "Ġsides": 4015,
      "rec": 4016,
      "ref": 4017,
      "Ġow": 4018,
      "itate": 4019,
      "Ġcra": 4020,
      "Ġcast": 4021,
      "Ġcoup": 4022,
      "Ġdom": 4023,
      "Ġdouble": 4024,
      "Ġinn": 4025,
      "Ġpal": 4026,
      "Ġpage": 4027,
      "Ġpool": 4028,
      "Ġhabit": 4029,
      "Ġhung": 4030,
      "Ġlane": 4031,
      "Ġyell": 4032,
      "Ġease": 4033,
      "Ġgro": 4034,
      "Ġur": 4035,
      "urally": 4036,
      "roach": 4037,
      "ables": 4038,
      "child": 4039,
      "Ġstates": 4040,
      "ĠHosmer": 4041,
      "Ġseat": 4042,
      "Ġseldom": 4043,
      "ifference": 4044,
      "Ġdebt": 4045,
      "geance": 4046,
      "quet": 4047,
      "alley": 4048,
      "ĠSuch": 4049,
      "Ġshore": 4050,
      "Ġvac": 4051,
      "uses": 4052,
      "oused": 4053,
      "istribut": 4054,
      "Ġrate": 4055,
      "Ġamaz": 4056,
      "astic": 4057,
      "lope": 4058,
      "cial": 4059,
      "Ġtwelve": 4060,
      "Ġrepresent": 4061,
      "ĠNO": 4062,
      "Ġretired": 4063,
      "Ġproud": 4064,
      "Ġprefer": 4065,
      "rench": 4066,
      "Ġaddition": 4067,
      "Ġglancing": 4068,
      "Ġpossession": 4069,
      "Ġcommand": 4070,
      "iality": 4071,
      "until": 4072,
      "Ġadvent": 4073,
      "standing": 4074,
      "Ġwants": 4075,
      "Ġcleared": 4076,
      "Ġcreated": 4077,
      "Ġcoronet": 4078,
      "Ġlarger": 4079,
      "duction": 4080,
      "Ġcharming": 4081,
      "Ġlively": 4082,
      "Ġinclination": 4083,
      "Ġclearly": 4084,
      "Ġrequired": 4085,
      "Ġbroad": 4086,
      "Ġpainful": 4087,
      "Ġservants": 4088,
      "character": 4089,
      "Ġedge": 4090,
      "Ġcottagers": 4091,
      "desp": 4092,
      "Ġcollection": 4093,
      "Ġemployed": 4094,
      "Ġdeparture": 4095,
      "Ġvalue": 4096,
      "Ġquarter": 4097,
      "Ġmedium": 4098,
      "Ġcreation": 4099,
      "ĠFrankenstein": 4100,
      "ĠWhite": 4101,
      "ĠChrist": 4102,
      "Ġsuspicion": 4103,
      "Ġwelcome": 4104,
      "Ġvirtue": 4105,
      "Ġsurrounded": 4106,
      "Ġneglect": 4107,
      "Ġintelligence": 4108,
      "ĠScotland": 4109,
      "ĠWilson": 4110,
      "Ġvengeance": 4111,
      "Ġnervous": 4112,
      "Ġindividual": 4113,
      "AG": 4114,
      "Collins": 4115,
      "Ex": 4116,
      "Have": 4117,
      "Section": 4118,
      "bits": 4119,
      "col": 4120,
      "cond": 4121,
      "ez": 4122,
      "fall": 4123,
      "give": 4124,
      "ius": 4125,
      "make": 4126,
      "obs": 4127,
      "pon": 4128,
      "pent": 4129,
      "pect": 4130,
      "piece": 4131,
      "rather": 4132,
      "sol": 4133,
      "sil": 4134,
      "wa": 4135,
      "zen": 4136,
      "Ġid": 4137,
      "Ġwound": 4138,
      "Ġwond": 4139,
      "rect": 4140,
      "half": 4141,
      "Ġmal": 4142,
      "Ġmove": 4143,
      "ism": 4144,
      "isement": 4145,
      "inguish": 4146,
      "Ġdue": 4147,
      "orough": 4148,
      "Ġpack": 4149,
      "Ġpaying": 4150,
      "ann": 4151,
      "anied": 4152,
      "Ġhint": 4153,
      "omp": 4154,
      "Ġluck": 4155,
      "Ġrejo": 4156,
      "Ġwhist": 4157,
      "Ġmystery": 4158,
      "Ġassem": 4159,
      "Ġweather": 4160,
      "abs": 4161,
      "illy": 4162,
      "Ġstairs": 4163,
      "ĠHave": 4164,
      "aming": 4165,
      "Ġdeceived": 4166,
      "qual": 4167,
      "quite": 4168,
      "ĠSaturday": 4169,
      "ĠLI": 4170,
      "Ġnobody": 4171,
      "Ġleaves": 4172,
      "ĠDid": 4173,
      "ĠEven": 4174,
      "Ġagitation": 4175,
      "aging": 4176,
      "Ġsomeone": 4177,
      "Ġshoulders": 4178,
      "fee": 4179,
      "civ": 4180,
      "Ġpartner": 4181,
      "fulness": 4182,
      "rank": 4183,
      "conn": 4184,
      "Ġreplace": 4185,
      "Ġscream": 4186,
      "olded": 4187,
      "young": 4188,
      "licity": 4189,
      "Ġpossess": 4190,
      "Ġcommitted": 4191,
      "Ġevidently": 4192,
      "ials": 4193,
      "Ġvisited": 4194,
      "Ġcheeks": 4195,
      "Ġpresented": 4196,
      "Ġconsideration": 4197,
      "Ġinterested": 4198,
      "Ġhorse": 4199,
      "Ġlistening": 4200,
      "ibank": 4201,
      "Ġcondem": 4202,
      "Ġmurdered": 4203,
      "ĠArthur": 4204,
      "door": 4205,
      "Ġpolit": 4206,
      "Ġexpectation": 4207,
      "Ġagreed": 4208,
      "Ġoccasionally": 4209,
      "Ġdistribute": 4210,
      "Ġdistribution": 4211,
      "expected": 4212,
      "Ġsmiles": 4213,
      "ounce": 4214,
      "Ġprotected": 4215,
      "Ġeste": 4216,
      "everything": 4217,
      "Ġviolence": 4218,
      "Ġdevoted": 4219,
      "Ġundert": 4220,
      "ĠAngel": 4221,
      "Ġrecollection": 4222,
      "Ġpursuit": 4223,
      "Ġearnestly": 4224,
      "Ġfatig": 4225,
      "Ġinterrupted": 4226,
      "Ġdrink": 4227,
      "Ġrelief": 4228,
      "between": 4229,
      "Ġdetails": 4230,
      "ustomed": 4231,
      "acquaintance": 4232,
      "ĠAgatha": 4233,
      "Ġimmense": 4234,
      "Ġhighest": 4235,
      "husi": 4236,
      "necessary": 4237,
      "Ã¦mon": 4238,
      "unteers": 4239,
      "Ġparents": 4240,
      "Ġopposite": 4241,
      "Al": 4242,
      "Are": 4243,
      "Lydia": 4244,
      "Qu": 4245,
      "Where": 4246,
      "char": 4247,
      "free": 4248,
      "iest": 4249,
      "iven": 4250,
      "mount": 4251,
      "master": 4252,
      "pla": 4253,
      "pret": 4254,
      "rase": 4255,
      "sing": 4256,
      "surpr": 4257,
      "tra": 4258,
      "view": 4259,
      "Ġver": 4260,
      "Ġaction": 4261,
      "inqu": 4262,
      "incl": 4263,
      "Ġsim": 4264,
      "Ġsink": 4265,
      "Ġod": 4266,
      "ouds": 4267,
      "isure": 4268,
      "Ġbab": 4269,
      "Ġbore": 4270,
      "Ġbra": 4271,
      "Ġcro": 4272,
      "Ġcig": 4273,
      "Ġcell": 4274,
      "Ġcatch": 4275,
      "Ġfulf": 4276,
      "Ġoffered": 4277,
      "ories": 4278,
      "esc": 4279,
      "Ġhell": 4280,
      "anim": 4281,
      "Ġbeings": 4282,
      "Ġlot": 4283,
      "step": 4284,
      "search": 4285,
      "Ġga": 4286,
      "Ġgen": 4287,
      "Ġreve": 4288,
      "Ġthy": 4289,
      "Ġforb": 4290,
      "ales": 4291,
      "road": 4292,
      "Ġweight": 4293,
      "Ġmere": 4294,
      "Ġmeas": 4295,
      "illity": 4296,
      "Ġsold": 4297,
      "things": 4298,
      "oline": 4299,
      "Ġexample": 4300,
      "estig": 4301,
      "Ġnearer": 4302,
      "Ġleisure": 4303,
      "istol": 4304,
      "Ġwouldn": 4305,
      "Ġunlike": 4306,
      "Ġpropos": 4307,
      "umn": 4308,
      "ĠGood": 4309,
      "Ġlives": 4310,
      "ĠPray": 4311,
      "ĠTurner": 4312,
      "tell": 4313,
      "Ġshad": 4314,
      "Ġshoulder": 4315,
      "ertin": 4316,
      "Ġapprehens": 4317,
      "Ġparted": 4318,
      "Ġbride": 4319,
      "ĠOur": 4320,
      "Ġoffended": 4321,
      "manner": 4322,
      "Ġprepar": 4323,
      "Ġpaused": 4324,
      "sub": 4325,
      "Ġmoral": 4326,
      "Ġchoice": 4327,
      "Ġcertainty": 4328,
      "Ġcalling": 4329,
      "Ġcommission": 4330,
      "upid": 4331,
      "Ġconfidence": 4332,
      "apable": 4333,
      "Ġcrimin": 4334,
      "Ġpersons": 4335,
      "sonage": 4336,
      "willing": 4337,
      "Ġcopying": 4338,
      "Ġrelate": 4339,
      "Ġobjection": 4340,
      "Ġengage": 4341,
      "disapp": 4342,
      "Ġtrace": 4343,
      "ogn": 4344,
      "Ġcircle": 4345,
      "ointment": 4346,
      "Ġstrongly": 4347,
      "Ġprofess": 4348,
      "Ġtrial": 4349,
      "Ġrespectable": 4350,
      "Ġutmost": 4351,
      "III": 4352,
      "Ġswift": 4353,
      "Ġruin": 4354,
      "Ġcomfortable": 4355,
      "face": 4356,
      "Ġterrible": 4357,
      "feeling": 4358,
      "Ġbringing": 4359,
      "Ġjudgment": 4360,
      "Ġmountain": 4361,
      "Ġinnocence": 4362,
      "Ġduties": 4363,
      "Ġbesides": 4364,
      "Ġwandered": 4365,
      "cisely": 4366,
      "Ġstopped": 4367,
      "Ġexecution": 4368,
      "Ġbreath": 4369,
      "Ġefforts": 4370,
      "Ġwatched": 4371,
      "ĠMaria": 4372,
      "Ġdeclared": 4373,
      "Ġtender": 4374,
      "Ġcruel": 4375,
      "Ġeducation": 4376,
      "Ġadvertisement": 4377,
      "ĠRoylott": 4378,
      "oubtedly": 4379,
      "Ġcouple": 4380,
      "Catherine": 4381,
      "bition": 4382,
      "cur": 4383,
      "cir": 4384,
      "doubt": 4385,
      "foll": 4386,
      "last": 4387,
      "oked": 4388,
      "pres": 4389,
      "present": 4390,
      "sure": 4391,
      "table": 4392,
      "Ġ----": 4393,
      "Ġte": 4394,
      "Ġtakes": 4395,
      "Ġwid": 4396,
      "Ġsin": 4397,
      "Ġsong": 4398,
      "Ġsne": 4399,
      "Ġburst": 4400,
      "Ġcard": 4401,
      "Ġcity": 4402,
      "Ġfre": 4403,
      "Ġdressing": 4404,
      "arse": 4405,
      "atory": 4406,
      "Ġinform": 4407,
      "Ġinspector": 4408,
      "Ġpress": 4409,
      "Ġnine": 4410,
      "Ġhouses": 4411,
      "Ġlam": 4412,
      "Ġloose": 4413,
      "Ġlicense": 4414,
      "Ġlines": 4415,
      "velope": 4416,
      "strong": 4417,
      "idents": 4418,
      "Ġresp": 4419,
      "urd": 4420,
      "liest": 4421,
      "Ġsaved": 4422,
      "These": 4423,
      "oop": 4424,
      "Ġstra": 4425,
      "Ġstretched": 4426,
      "ifying": 4427,
      "ĠBo": 4428,
      "usted": 4429,
      "ĠSto": 4430,
      "iles": 4431,
      "ilar": 4432,
      "estic": 4433,
      "ĠLod": 4434,
      "unk": 4435,
      "Ġris": 4436,
      "antly": 4437,
      "Ġunl": 4438,
      "Ġunion": 4439,
      "ĠDuring": 4440,
      "venience": 4441,
      "atherley": 4442,
      "ĠPRO": 4443,
      "Ġjump": 4444,
      "Ġqual": 4445,
      "ĠTwo": 4446,
      "Ġsomewhat": 4447,
      "Ġusually": 4448,
      "Ġexpens": 4449,
      "Ġremains": 4450,
      "Ġroof": 4451,
      "Ġroyal": 4452,
      "Ġcompliance": 4453,
      "Ġcomposure": 4454,
      "cient": 4455,
      "Ġowner": 4456,
      "Ġbrown": 4457,
      "Ġimpertin": 4458,
      "Ġattached": 4459,
      "conversation": 4460,
      "Ġcontempt": 4461,
      "Ġgrass": 4462,
      "acity": 4463,
      "Ġsooner": 4464,
      "many": 4465,
      "Ġendure": 4466,
      "alking": 4467,
      "ĠStoner": 4468,
      "Ġdistress": 4469,
      "Ġpair": 4470,
      "suff": 4471,
      ".âĢĻâĢĿ": 4472,
      "Ġblow": 4473,
      "Ġkindly": 4474,
      "Ġlock": 4475,
      "Ġnaturally": 4476,
      "Ġraise": 4477,
      "Ġdifference": 4478,
      "Ġputting": 4479,
      "Ġpointed": 4480,
      "Ġobservation": 4481,
      "Ġbusy": 4482,
      "Ġclever": 4483,
      "Ġconsidering": 4484,
      "Ġrelation": 4485,
      "Ġobjects": 4486,
      "Ġactually": 4487,
      "Ġstepfather": 4488,
      "iana": 4489,
      "Ġkeeping": 4490,
      "therefore": 4491,
      "Ġdetermine": 4492,
      "does": 4493,
      "Ġreflection": 4494,
      "Ġdisappeared": 4495,
      "onsense": 4496,
      "looked": 4497,
      "Ġselfish": 4498,
      "Ġterror": 4499,
      "Ġdevil": 4500,
      "Ġholder": 4501,
      "prot": 4502,
      "Ġenjoyment": 4503,
      "Ġmotion": 4504,
      "Ġdescribed": 4505,
      "Ġimprove": 4506,
      "Ġinquiry": 4507,
      "Ġthanks": 4508,
      "Ġdisgrace": 4509,
      "000": 4510,
      "Ġlimbs": 4511,
      "Ġlabour": 4512,
      "Ġmisfortunes": 4513,
      "countenance": 4514,
      "Ġvanished": 4515,
      "rudence": 4516,
      "eville": 4517,
      "regard": 4518,
      "Ġfingers": 4519,
      "Ġbuild": 4520,
      "ĠHunter": 4521,
      "ĠNothing": 4522,
      "Ġpractice": 4523,
      "Ġintimate": 4524,
      "Ġrecommend": 4525,
      "respond": 4526,
      "Ġfurniture": 4527,
      "Ġsucceeded": 4528,
      "Ġprincipal": 4529,
      "determ": 4530,
      "ĠCaroline": 4531,
      "Ġshouted": 4532,
      "Ġmachine": 4533,
      "Ġscenes": 4534,
      "family": 4535,
      "ĠWindibank": 4536,
      "ĠLodge": 4537,
      ".)": 4538,
      ":âĢĶ": 4539,
      "BER": 4540,
      "De": 4541,
      "Did": 4542,
      "EM": 4543,
      "JE": 4544,
      "TH": 4545,
      "Yet": 4546,
      "away": 4547,
      "best": 4548,
      "don": 4549,
      "eal": 4550,
      "gone": 4551,
      "ivers": 4552,
      "ienced": 4553,
      "ky": 4554,
      "kward": 4555,
      "mark": 4556,
      "too": 4557,
      "uous": 4558,
      "win": 4559,
      "Ġtim": 4560,
      "Ġtear": 4561,
      "Ġtaught": 4562,
      "Ġtail": 4563,
      "Ġaid": 4564,
      "recy": 4565,
      "haw": 4566,
      "itable": 4567,
      "itary": 4568,
      "Ġbow": 4569,
      "Ġdim": 4570,
      "Ġdam": 4571,
      "Ġdine": 4572,
      "Ġdining": 4573,
      "orse": 4574,
      "Ġinformed": 4575,
      "Ġpressed": 4576,
      "Ġlest": 4577,
      "ically": 4578,
      "street": 4579,
      "Ġrevol": 4580,
      "Ġthorough": 4581,
      "Ġwept": 4582,
      "abl": 4583,
      "life": 4584,
      "Their": 4585,
      "Ġstop": 4586,
      "ourn": 4587,
      "quiet": 4588,
      "Ġexer": 4589,
      "Ġexhi": 4590,
      "ilty": 4591,
      "ulous": 4592,
      "ems": 4593,
      "Ġnose": 4594,
      "Ġnovel": 4595,
      "usions": 4596,
      "ushing": 4597,
      "osen": 4598,
      "unning": 4599,
      "ists": 4600,
      "ĠCould": 4601,
      "ĠCome": 4602,
      "antages": 4603,
      "Ġunknown": 4604,
      "ĠDon": 4605,
      "endea": 4606,
      "umph": 4607,
      "ĠPerhaps": 4608,
      "Ġshape": 4609,
      "ighed": 4610,
      "Ġfailed": 4611,
      "Ġapplied": 4612,
      "Ġremind": 4613,
      "Ġarise": 4614,
      "Ġtwink": 4615,
      "Ġafternoon": 4616,
      "neighbour": 4617,
      "lease": 4618,
      "Ġentering": 4619,
      "Ġenthusi": 4620,
      "ĠNeville": 4621,
      "Ġcontempl": 4622,
      "Ġgrin": 4623,
      "Ġgrand": 4624,
      "acle": 4625,
      "Ġsmoke": 4626,
      "comes": 4627,
      "Ġpron": 4628,
      "Ġhousekeeper": 4629,
      "igned": 4630,
      "Ġclouds": 4631,
      "Ġplaying": 4632,
      "ĠKent": 4633,
      "Ġdoors": 4634,
      "Ġchim": 4635,
      "Ġchose": 4636,
      "Ġblame": 4637,
      "Ġrefused": 4638,
      "Ġrecord": 4639,
      "Ġlover": 4640,
      "Ġlocked": 4641,
      "Ġheads": 4642,
      "Ġsecrecy": 4643,
      "Ġdisclaim": 4644,
      "Ġadvanced": 4645,
      "Ġrestored": 4646,
      "Ġlawn": 4647,
      "Ġpointing": 4648,
      "ributed": 4649,
      "Ġuseless": 4650,
      "particular": 4651,
      "Ġbestow": 4652,
      "Ġgenerous": 4653,
      "Ġobserving": 4654,
      "Ġsensation": 4655,
      "attention": 4656,
      "Ġsatisfy": 4657,
      "Ġawkward": 4658,
      "Ġwooden": 4659,
      "Ġpropri": 4660,
      "ounter": 4661,
      "Ġbedroom": 4662,
      "Ġmistake": 4663,
      "Ġsigns": 4664,
      "Ġdriven": 4665,
      "Ġsolitude": 4666,
      "Ġastonished": 4667,
      "Ġmodern": 4668,
      "Ġdeparted": 4669,
      "Ġwarmth": 4670,
      "ITY": 4671,
      "rudent": 4672,
      "Ġobtain": 4673,
      "humour": 4674,
      "ĠFrank": 4675,
      "Ġprepare": 4676,
      "Ġprepared": 4677,
      "whether": 4678,
      "Ġdelicacy": 4679,
      "Ġembarr": 4680,
      "Ġtouch": 4681,
      "Ġrapidly": 4682,
      "Ġerr": 4683,
      "Ġbirds": 4684,
      "Ġuncommon": 4685,
      "Ġdwelling": 4686,
      "hardly": 4687,
      "important": 4688,
      "Ġpulled": 4689,
      "Ġinstrument": 4690,
      "Ġacknowledged": 4691,
      "Quite": 4692,
      "Ġshadow": 4693,
      "Ġstraight": 4694,
      ".,": 4695,
      "AL": 4696,
      "CH": 4697,
      "IV": 4698,
      "Justine": 4699,
      "LE": 4700,
      "NY": 4701,
      "RI": 4702,
      "Such": 4703,
      "Wh": 4704,
      "aly": 4705,
      "dra": 4706,
      "hur": 4707,
      "lad": 4708,
      "mur": 4709,
      "nes": 4710,
      "ode": 4711,
      "point": 4712,
      "rain": 4713,
      "sed": 4714,
      "say": 4715,
      "vive": 4716,
      "want": 4717,
      "Ġ5": 4718,
      "Ġ9": 4719,
      "ĠâĢ": 4720,
      "Ġident": 4721,
      "inst": 4722,
      "Ġwicked": 4723,
      "Ġschool": 4724,
      "Ġmain": 4725,
      "itive": 4726,
      "Ġbare": 4727,
      "Ġbowed": 4728,
      "Ġburning": 4729,
      "enough": 4730,
      "Ġcof": 4731,
      "Ġcord": 4732,
      "Ġdry": 4733,
      "Ġdull": 4734,
      "Ġdying": 4735,
      "ĠdÃ¦mon": 4736,
      "Ġhed": 4737,
      "Ġhabits": 4738,
      "ots": 4739,
      "Ġlit": 4740,
      "Ġlower": 4741,
      "Ġyield": 4742,
      "Ġet": 4743,
      "stad": 4744,
      "Ġgain": 4745,
      "Ġgall": 4746,
      "etch": 4747,
      "Ġones": 4748,
      "Ġonline": 4749,
      "hern": 4750,
      "rive": 4751,
      "Ġweep": 4752,
      "Ġweary": 4753,
      "Ġwebs": 4754,
      "Ġsacri": 4755,
      "ĠHolder": 4756,
      "ĠANY": 4757,
      "olstad": 4758,
      "Ġfever": 4759,
      "Ġfelicity": 4760,
      "ĠWAR": 4761,
      "Ġvoy": 4762,
      "usual": 4763,
      "istrate": 4764,
      "Ġratt": 4765,
      "ĠCor": 4766,
      "Ġunpleasant": 4767,
      "Ġaltogether": 4768,
      "Ġprocess": 4769,
      "umed": 4770,
      "ĠGener": 4771,
      "ĠGUT": 4772,
      "bery": 4773,
      "ĠPet": 4774,
      "Ġshade": 4775,
      "ĠHeaven": 4776,
      "earth": 4777,
      "Ġenvelope": 4778,
      "often": 4779,
      "irect": 4780,
      "Ġspare": 4781,
      "issed": 4782,
      "because": 4783,
      "began": 4784,
      "Ġperceive": 4785,
      "ngolstad": 4786,
      "Ġobst": 4787,
      "Ġarran": 4788,
      "Ġbranc": 4789,
      "Ġattent": 4790,
      "Ġattack": 4791,
      "perhaps": 4792,
      "ĠNor": 4793,
      "Ġpreced": 4794,
      "Ġprecip": 4795,
      "Ġprevious": 4796,
      "Ġclue": 4797,
      "Ġplaces": 4798,
      "Ġpreserve": 4799,
      "Ġsupper": 4800,
      "Ġsupply": 4801,
      "Ġ17": 4802,
      "Ġinstance": 4803,
      "Ġinstruct": 4804,
      "Ġformat": 4805,
      "appearance": 4806,
      "Ġconfusion": 4807,
      "Ġconfirm": 4808,
      "Ġassert": 4809,
      "ĠInformation": 4810,
      "Ġindifferent": 4811,
      "Ġsurely": 4812,
      "Ġempt": 4813,
      "Ġheartily": 4814,
      "Ġextent": 4815,
      "Ġguess": 4816,
      "Ġcreator": 4817,
      "Ġreasonable": 4818,
      "Ġuseful": 4819,
      "Ġinvestig": 4820,
      "Ġfriendship": 4821,
      "Ġabsurd": 4822,
      "yourself": 4823,
      "Ġarrive": 4824,
      "Ġdestruction": 4825,
      "Ġshortly": 4826,
      "Ġinclined": 4827,
      "Ġincluded": 4828,
      "Ġinquire": 4829,
      "Ġinquired": 4830,
      "Ġtruly": 4831,
      "Ġawoke": 4832,
      "Ġcoach": 4833,
      "Ġremarks": 4834,
      "Ġboat": 4835,
      "Ġreflected": 4836,
      "Ġfreely": 4837,
      "ENBER": 4838,
      "Ġformerly": 4839,
      "Ġeffects": 4840,
      "natured": 4841,
      "Ġimproved": 4842,
      "writing": 4843,
      "written": 4844,
      "Ġwhisper": 4845,
      "against": 4846,
      "Ġvaluable": 4847,
      "Ġintroduce": 4848,
      "Ġfrequent": 4849,
      "Ġpursued": 4850,
      "box": 4851,
      "Ġstreets": 4852,
      "Ġdisappointed": 4853,
      "Ġvolunteers": 4854,
      "Ġplainly": 4855,
      "Ġcommunication": 4856,
      "Ġsufferings": 4857,
      "Ġconcealed": 4858,
      "Ġelder": 4859,
      "Ġdisplaying": 4860,
      "break": 4861,
      "marriage": 4862,
      "Ġdelicate": 4863,
      "acquainted": 4864,
      "RANT": 4865,
      "Ġslipped": 4866,
      "Ġframe": 4867,
      "Ġspeedily": 4868,
      "Ġdisturb": 4869,
      "Ġbottom": 4870,
      "Ġfifty": 4871,
      "Ġliberty": 4872,
      "affection": 4873,
      "Ġcrowd": 4874,
      "Ġhideous": 4875,
      "Ġpipe": 4876,
      "Ġscheme": 4877,
      "Ġtranquillity": 4878,
      "question": 4879,
      "Ġhanging": 4880,
      "Ġtype": 4881,
      "Ġresentment": 4882,
      "Ġrequirements": 4883,
      "Ġapartment": 4884,
      "penshaw": 4885,
      "Ġyellow": 4886,
      "Ġurged": 4887,
      "subject": 4888,
      "Ġcriminal": 4889,
      "ĠPROJE": 4890,
      "ĠâĢ¢": 4891,
      "Ġcoffee": 4892,
      "Ġwebsite": 4893,
      "ĠWARRANT": 4894,
      "ĠGUTENBER": 4895,
      "ngolstadt": 4896,
      "Ġbranches": 4897,
      "ĠPROJECT": 4898,
      "ĠGUTENBERG": 4899,
      "Clerval": 4900,
      "Every": 4901,
      "Never": 4902,
      "Re": 4903,
      "Th": 4904,
      "VI": 4905,
      "bar": 4906,
      "bur": 4907,
      "dom": 4908,
      "dark": 4909,
      "different": 4910,
      "gings": 4911,
      "giana": 4912,
      "husband": 4913,
      "iers": 4914,
      "lerable": 4915,
      "ma": 4916,
      "mpt": 4917,
      "swe": 4918,
      "ties": 4919,
      "ugh": 4920,
      "Ã©": 4921,
      "Ġtest": 4922,
      "Ġtong": 4923,
      "Ġtree": 4924,
      "hered": 4925,
      "inction": 4926,
      "instant": 4927,
      "Ġwide": 4928,
      "reck": 4929,
      "oul": 4930,
      "Ġmission": 4931,
      "Ġble": 4932,
      "Ġband": 4933,
      "Ġcook": 4934,
      "Ġcolonel": 4935,
      "Ġcustom": 4936,
      "Ġfled": 4937,
      "Ġtolerable": 4938,
      "oran": 4939,
      "asions": 4940,
      "armed": 4941,
      "Ġpet": 4942,
      "Ġport": 4943,
      "Ġphy": 4944,
      "Ġho": 4945,
      "Ġhy": 4946,
      "Ġhove": 4947,
      "Ġhunt": 4948,
      "lete": 4949,
      "Ġlif": 4950,
      "several": 4951,
      "idge": 4952,
      "Ġgla": 4953,
      "Ġgees": 4954,
      "Ġreject": 4955,
      "Ġreward": 4956,
      "Ġthirst": 4957,
      "Ġthirty": 4958,
      "Ġasleep": 4959,
      "irmed": 4960,
      "almost": 4961,
      "rose": 4962,
      "ripp": 4963,
      "ades": 4964,
      "Ġwear": 4965,
      "ĠMont": 4966,
      "Ġsaf": 4967,
      "Ġsail": 4968,
      "Ġsty": 4969,
      "Ġstro": 4970,
      "ĠHatherley": 4971,
      "Ġsevere": 4972,
      "Ġdepri": 4973,
      "andal": 4974,
      "thousand": 4975,
      "ĠBill": 4976,
      "allow": 4977,
      "olved": 4978,
      "ĠSquare": 4979,
      "ilator": 4980,
      "Ġneat": 4981,
      "Ġshr": 4982,
      "Ġship": 4983,
      "Ġshoes": 4984,
      "ulse": 4985,
      "ulated": 4986,
      "usal": 4987,
      "osom": 4988,
      "oscom": 4989,
      "Ġrise": 4990,
      "arts": 4991,
      "Ġworked": 4992,
      "Ġaltered": 4993,
      "agre": 4994,
      "laps": 4995,
      "Ġproduce": 4996,
      "ĠGerman": 4997,
      "Ġsomewhere": 4998,
      "opened": 4999,
      "oller": 5000,
      "âĢĶâĢľ": 5001,
      "aret": 5002,
      "Ġspared": 5003,
      "ĠFrench": 5004,
      "Ġexpense": 5005,
      "Ġremaining": 5006,
      "mean": 5007,
      "ferences": 5008,
      "Ġarrest": 5009,
      "ĠJones": 5010,
      "ĠOpenshaw": 5011,
      "Ġlikewise": 5012,
      "enny": 5013,
      "concer": 5014,
      "returned": 5015,
      "Ġgrown": 5016,
      "Ġaccustomed": 5017,
      "Ġconscious": 5018,
      "Ġways": 5019,
      "Ġdistant": 5020,
      "Ġpresently": 5021,
      "Ġchosen": 5022,
      "Ġsupposing": 5023,
      "Ġpossibility": 5024,
      "itherto": 5025,
      "Ġsettle": 5026,
      "Ġrecover": 5027,
      "Ġrecogn": 5028,
      "Ġwishing": 5029,
      "Ġrapt": 5030,
      "Ġadvance": 5031,
      "Ġadvise": 5032,
      "aution": 5033,
      "Ġclean": 5034,
      "Ġsmallest": 5035,
      "Ġlessons": 5036,
      "Ġguest": 5037,
      "Ġguilty": 5038,
      "Ġdoesn": 5039,
      "Ġreasons": 5040,
      "orses": 5041,
      "Ġsincerely": 5042,
      "Ġcorrespond": 5043,
      "Ġstrang": 5044,
      "Ġhumour": 5045,
      "Ġbestowed": 5046,
      "Ġinvited": 5047,
      "Ġsubjects": 5048,
      "ĠĠĠĠĠĠĠĠĠĠĠĠĠĠĠĠĠĠĠĠĠĠĠĠĠĠĠĠĠĠĠĠĠĠĠĠĠĠĠĠĠĠĠĠĠĠĠĠ": 5049,
      "Ġadmired": 5050,
      "brance": 5051,
      "brought": 5052,
      "brother": 5053,
      "Ġsentiments": 5054,
      "Ġhurt": 5055,
      "ĠArab": 5056,
      "rief": 5057,
      "Ġlearnt": 5058,
      "Ġremarkably": 5059,
      "eches": 5060,
      "Ġinside": 5061,
      "court": 5062,
      "Ġarmchair": 5063,
      "Ġuttered": 5064,
      "Ġviews": 5065,
      "Ġeditions": 5066,
      "Ġcomplex": 5067,
      "Ġattempted": 5068,
      "Ġvariety": 5069,
      "Ġgratified": 5070,
      "Ġendeavouring": 5071,
      "ternal": 5072,
      "Ġheavily": 5073,
      "Ġconcluded": 5074,
      "evening": 5075,
      "Ġventured": 5076,
      "Ġvanity": 5077,
      "Ġcomplying": 5078,
      "board": 5079,
      "Ġgreen": 5080,
      "Ġcerem": 5081,
      "Ġutterly": 5082,
      "better": 5083,
      "Ġmagn": 5084,
      "Ġapproaching": 5085,
      "Ġstatement": 5086,
      "Ġexertion": 5087,
      "Ġpuzzled": 5088,
      "ĠXXX": 5089,
      "Ġaccompanied": 5090,
      "ergyman": 5091,
      "Ġdisposed": 5092,
      "Ġnarrative": 5093,
      "Ġamusement": 5094,
      "Ġcentre": 5095,
      "Ġassurance": 5096,
      "Ġalteration": 5097,
      "Ġphilosophy": 5098,
      "Ġapparently": 5099,
      "Ġelegant": 5100,
      "Ġborne": 5101,
      "ĠRoad": 5102,
      "Ġdebts": 5103,
      "ĠChristmas": 5104,
      "circumst": 5105,
      "Ġetc": 5106,
      "Ġphys": 5107,
      "Ġgeese": 5108,
      "oscombe": 5109,
      ";--": 5110,
      "AB": 5111,
      "AM": 5112,
      "LA": 5113,
      "May": 5114,
      "Our": 5115,
      "Some": 5116,
      "Un": 5117,
      "ald": 5118,
      "apt": 5119,
      "bene": 5120,
      "bles": 5121,
      "cure": 5122,
      "care": 5123,
      "cott": 5124,
      "done": 5125,
      "daughter": 5126,
      "fin": 5127,
      "got": 5128,
      "gra": 5129,
      "hon": 5130,
      "iver": 5131,
      "lar": 5132,
      "mo": 5133,
      "mitted": 5134,
      "oc": 5135,
      "po": 5136,
      "possible": 5137,
      "sight": 5138,
      "since": 5139,
      "tem": 5140,
      "take": 5141,
      "ule": 5142,
      "went": 5143,
      "wonder": 5144,
      "Ãª": 5145,
      "Ġ[": 5146,
      "Ġtum": 5147,
      "Ġarose": 5148,
      "inv": 5149,
      "inah": 5150,
      "Ġwet": 5151,
      "received": 5152,
      "hast": 5153,
      "Ġmat": 5154,
      "Ġmild": 5155,
      "eder": 5156,
      "Ġban": 5157,
      "Ġbosom": 5158,
      "Ġcand": 5159,
      "Ġcup": 5160,
      "Ġflight": 5161,
      "Ġtot": 5162,
      "Ġtoler": 5163,
      "ĠIngolstadt": 5164,
      "asm": 5165,
      "ased": 5166,
      "llable": 5167,
      "ata": 5168,
      "Ġnonsense": 5169,
      "Ġhills": 5170,
      "Ġhorses": 5171,
      "left": 5172,
      "strange": 5173,
      "Ġwasn": 5174,
      "entleness": 5175,
      "etr": 5176,
      "Ġthou": 5177,
      "Ġthro": 5178,
      "Ġthumb": 5179,
      "Ġhers": 5180,
      "Ġnotes": 5181,
      "urse": 5182,
      "adually": 5183,
      "tering": 5184,
      "Ġsheet": 5185,
      "ecting": 5186,
      "Ġstick": 5187,
      "Ġstaying": 5188,
      "Ġstupid": 5189,
      "Ġselect": 5190,
      "ĠAre": 5191,
      "ĠAbout": 5192,
      "ilities": 5193,
      "Ġfem": 5194,
      "Ġshot": 5195,
      "Ġshone": 5196,
      "ĠWas": 5197,
      "ĠWhere": 5198,
      "Ġmanage": 5199,
      "Ġmanaged": 5200,
      "Ġram": 5201,
      "Ġroused": 5202,
      "ĠCity": 5203,
      "Ġworn": 5204,
      "Ġalarmed": 5205,
      "orted": 5206,
      "umer": 5207,
      "bert": 5208,
      "Ġlies": 5209,
      "Ġjew": 5210,
      "Ġque": 5211,
      "death": 5212,
      "Ġshame": 5213,
      "Ġshaking": 5214,
      "early": 5215,
      "Ġenv": 5216,
      "arewell": 5217,
      "Ġspread": 5218,
      "loom": 5219,
      "begin": 5220,
      "Ġrock": 5221,
      "Ġparties": 5222,
      "Ġgoes": 5223,
      "Ġattract": 5224,
      "next": 5225,
      "high": 5226,
      "Ġretreat": 5227,
      "Ġpassions": 5228,
      "ache": 5229,
      "lessness": 5230,
      "Ġbegun": 5231,
      "comed": 5232,
      "compl": 5233,
      "Ġprinted": 5234,
      "Ġtrou": 5235,
      "inson": 5236,
      "Ġyoungest": 5237,
      "Ġresidence": 5238,
      "Ġplans": 5239,
      "Ġthrowing": 5240,
      "success": 5241,
      "Ġmiser": 5242,
      "Ġrecent": 5243,
      "Ġconfined": 5244,
      "Ġconfessed": 5245,
      "Ġdiscuss": 5246,
      "Ġvisible": 5247,
      "ples": 5248,
      "Ġinduce": 5249,
      "Ġindifference": 5250,
      "Ġcarrying": 5251,
      "Ġflatter": 5252,
      "Ġincred": 5253,
      "Ġincident": 5254,
      "Ġincapable": 5255,
      "Ġcreating": 5256,
      "Ġcorrect": 5257,
      "Ġtrack": 5258,
      "Ġacted": 5259,
      "Ġactions": 5260,
      "prov": 5261,
      "ground": 5262,
      "Ġproviding": 5263,
      "Ġexpressions": 5264,
      "Ġinfinite": 5265,
      "month": 5266,
      "Ġseries": 5267,
      "Ġseriously": 5268,
      "compan": 5269,
      "Ġpurcha": 5270,
      "Ġdrop": 5271,
      "Ġfavourable": 5272,
      "Ġpolite": 5273,
      "Ġboast": 5274,
      "Ġanxiously": 5275,
      "Ġtriumph": 5276,
      "Ġsummon": 5277,
      "Ġprobability": 5278,
      "conscious": 5279,
      "Ġestabl": 5280,
      "Ġtransp": 5281,
      "Ġdanced": 5282,
      "Ġconnections": 5283,
      "Ġeagerness": 5284,
      "Ġcapital": 5285,
      "Ġneighbours": 5286,
      "Ġstudies": 5287,
      "Ġviolently": 5288,
      "Ġrule": 5289,
      "Ġterrif": 5290,
      "velop": 5291,
      "Ġnecessity": 5292,
      "Ġassistant": 5293,
      "Ġphrase": 5294,
      "Ġexamination": 5295,
      "Ġexamining": 5296,
      "Ġpatron": 5297,
      "Ġpatience": 5298,
      "Ġelev": 5299,
      "Ġcalcul": 5300,
      "Ġenjoyed": 5301,
      "Ġpermitted": 5302,
      "Ġrecollected": 5303,
      "Ġsteady": 5304,
      "Ġdisgust": 5305,
      "understand": 5306,
      "Ġartic": 5307,
      "sometimes": 5308,
      "Ġcontrast": 5309,
      "Ġbitterness": 5310,
      "Ġsympat": 5311,
      "Ġcompletely": 5312,
      "minutes": 5313,
      "judice": 5314,
      "occasion": 5315,
      "Ġdeduce": 5316,
      "ĠParsonage": 5317,
      "Ġprofessional": 5318,
      "Ġtouched": 5319,
      "Ġstrike": 5320,
      "Ġgazed": 5321,
      "spirits": 5322,
      "Ġapplication": 5323,
      "Ġapology": 5324,
      "Ġindignation": 5325,
      "window": 5326,
      "Ġgrateful": 5327,
      "Ġbaby": 5328,
      "Ġapprehension": 5329,
      "Ġfreed": 5330,
      "Ġqualities": 5331,
      "Ġexpenses": 5332,
      "Ġimprovement": 5333,
      "Ġtimid": 5334,
      "Ġenthusiasm": 5335,
      "Ġchimney": 5336,
      "Which": 5337,
      "Ġsacrif": 5338,
      "ĠGeneral": 5339,
      "Ġempty": 5340,
      "Ġhovel": 5341,
      "Ġstyle": 5342,
      "Colonel": 5343,
      "Just": 5344,
      "Lord": 5345,
      "Pre": 5346,
      "Would": 5347,
      "_âĢĿ": 5348,
      "awn": 5349,
      "book": 5350,
      "dated": 5351,
      "find": 5352,
      "gave": 5353,
      "girl": 5354,
      "iant": 5355,
      "iance": 5356,
      "ially": 5357,
      "ips": 5358,
      "ks": 5359,
      "met": 5360,
      "ny": 5361,
      "net": 5362,
      "oe": 5363,
      "pit": 5364,
      "post": 5365,
      "rous": 5366,
      "rained": 5367,
      "rnest": 5368,
      "sent": 5369,
      "same": 5370,
      "sens": 5371,
      "turned": 5372,
      "van": 5373,
      "water": 5374,
      "Ġess": 5375,
      "Ġtre": 5376,
      "Ġwore": 5377,
      "Ġsource": 5378,
      "rey": 5379,
      "Ġtheory": 5380,
      "Ġowe": 5381,
      "erving": 5382,
      "Ġmouse": 5383,
      "edition": 5384,
      "ednes": 5385,
      "itc": 5386,
      "itical": 5387,
      "ishes": 5388,
      "Ġboots": 5389,
      "Ġcards": 5390,
      "Ġfitted": 5391,
      "oration": 5392,
      "orner": 5393,
      "ĠIrene": 5394,
      "llow": 5395,
      "Ġpains": 5396,
      "Ġpicked": 5397,
      "Ġportion": 5398,
      "another": 5399,
      "Ġnerves": 5400,
      "Ġhid": 5401,
      "Ġhuge": 5402,
      "leave": 5403,
      "hattered": 5404,
      "ential": 5405,
      "Ġrender": 5406,
      "Ġrecei": 5407,
      "Ġresem": 5408,
      "cean": 5409,
      "Ġhero": 5410,
      "Ġaside": 5411,
      "Ġaspect": 5412,
      "irwin": 5413,
      "already": 5414,
      "rily": 5415,
      "Ġstair": 5416,
      "Ġstorm": 5417,
      "Ġstars": 5418,
      "ĠHaving": 5419,
      "ĠâĢľ_": 5420,
      "iform": 5421,
      "Ġconvers": 5422,
      "Ġconsole": 5423,
      "Ġdeed": 5424,
      "those": 5425,
      "ĠBesides": 5426,
      "ĠBoscombe": 5427,
      "ĠSee": 5428,
      "ilst": 5429,
      "Ġdozen": 5430,
      "arded": 5431,
      "Ġshud": 5432,
      "Ġshining": 5433,
      "uls": 5434,
      "Ġvast": 5435,
      "Ġvague": 5436,
      "Ġvalley": 5437,
      "une": 5438,
      "Ġrough": 5439,
      "Ġrub": 5440,
      "Ġrational": 5441,
      "arted": 5442,
      "urely": 5443,
      "Ġunjust": 5444,
      "erson": 5445,
      "Ġaltern": 5446,
      "Ġwilling": 5447,
      "ĠDIS": 5448,
      "ĠErnest": 5449,
      "Ġabode": 5450,
      "ĠPoor": 5451,
      "weather": 5452,
      "Ġdisd": 5453,
      "Ġenc": 5454,
      "Ġenergy": 5455,
      "behind": 5456,
      "Ġfaith": 5457,
      "Ġperpet": 5458,
      "Ġremove": 5459,
      "odo": 5460,
      "Ġarrange": 5461,
      "Ġdescend": 5462,
      "Ġdeserved": 5463,
      "Ġattending": 5464,
      "perfect": 5465,
      "Ġentrance": 5466,
      "Ġgrowing": 5467,
      "ĠRed": 5468,
      "Ġaccused": 5469,
      "Ġprecious": 5470,
      "olds": 5471,
      "ension": 5472,
      "exc": 5473,
      "expl": 5474,
      "ĠKirwin": 5475,
      "Ġbelieving": 5476,
      "fortable": 5477,
      "appeared": 5478,
      "rowing": 5479,
      "Ġfolly": 5480,
      "Ġconfused": 5481,
      "Ġtelling": 5482,
      "Ġpeep": 5483,
      "Ġincome": 5484,
      "Ġdoubtless": 5485,
      "Ġcrimes": 5486,
      "Ġpersonal": 5487,
      "Ġfearful": 5488,
      "Ġcorp": 5489,
      "Ġtraces": 5490,
      "Ġwalks": 5491,
      "Ġvisitors": 5492,
      "Ġinterval": 5493,
      "Ġcharm": 5494,
      "Ġsenses": 5495,
      "Ġimagined": 5496,
      "Ġcarefully": 5497,
      "Ġmoving": 5498,
      "Ġdirections": 5499,
      "persu": 5500,
      "viol": 5501,
      "Ġfinish": 5502,
      "Ġproportion": 5503,
      "Ġdistributed": 5504,
      "Ġservice": 5505,
      "Ġmistress": 5506,
      "ĠGeorgiana": 5507,
      "Ġgrounds": 5508,
      "Ġaffairs": 5509,
      "Ġdeadly": 5510,
      "ĠThough": 5511,
      "ĠThose": 5512,
      "Ġhatred": 5513,
      "Ġrude": 5514,
      "Ġdegrees": 5515,
      "Ġdreadfully": 5516,
      "Ġundoubtedly": 5517,
      "Ġavail": 5518,
      "Ġmotives": 5519,
      "Ġforgive": 5520,
      "Ġdescription": 5521,
      "Ġendeavours": 5522,
      "friends": 5523,
      "Ġtorment": 5524,
      "Ġparagraphs": 5525,
      "Ġdeny": 5526,
      "blance": 5527,
      "Ġventilator": 5528,
      "Ġlabours": 5529,
      "Ġescaped": 5530,
      "Ġfrightful": 5531,
      "Ġexperienced": 5532,
      "Ġcease": 5533,
      "ĠAdvent": 5534,
      "ĠAdler": 5535,
      "Ġtrembled": 5536,
      "Ġtrembling": 5537,
      "Ġposted": 5538,
      "Ġbanks": 5539,
      "Ġfamilies": 5540,
      "Ġemployment": 5541,
      "Ġimpatience": 5542,
      "Ġchiefly": 5543,
      "Ġgloomy": 5544,
      "uesday": 5545,
      "Ġmagistrate": 5546,
      "Ġlegal": 5547,
      "ĠParis": 5548,
      "Ġardour": 5549,
      "Ġgravely": 5550,
      "ING": 5551,
      "Ġstatus": 5552,
      "Ġtravelled": 5553,
      "Ġdeclare": 5554,
      "Ġcrossed": 5555,
      "Ġaccordingly": 5556,
      "Ġdisturbed": 5557,
      "Ġbirth": 5558,
      "Ġdefective": 5559,
      "Ġgolden": 5560,
      "Ġaccompany": 5561,
      "Ġmaterial": 5562,
      "Ġdivine": 5563,
      "Ġlodgings": 5564,
      "Ġfrost": 5565,
      "Ġgoverness": 5566,
      "Ġoriginal": 5567,
      "Ġlinks": 5568,
      "ĠLeague": 5569,
      "twenty": 5570,
      "Ġcomparison": 5571,
      "Ġleaning": 5572,
      "Ġprevailed": 5573,
      "Ġinhabitants": 5574,
      "Ġrejoiced": 5575,
      "Ġcondemned": 5576,
      "Ġpoliteness": 5577,
      "Ġesteem": 5578,
      "Ġundertaking": 5579,
      "Ġfatigue": 5580,
      "Ġcellar": 5581,
      "Ġunluck": 5582,
      "Ġbuilding": 5583,
      "Ġhedge": 5584,
      "Ġsafety": 5585,
      "Ġdeprived": 5586,
      "agreement": 5587,
      "lapsed": 5588,
      "Ġtolerably": 5589,
      "ednesday": 5590,
      "21": 5591,
      "Dear": 5592,
      "GRE": 5593,
      "IES": 5594,
      "MIT": 5595,
      "TI": 5596,
      "TRI": 5597,
      "aired": 5598,
      "bable": 5599,
      "cous": 5600,
      "drew": 5601,
      "eb": 5602,
      "five": 5603,
      "hour": 5604,
      "home": 5605,
      "journey": 5606,
      "list": 5607,
      "liness": 5608,
      "oking": 5609,
      "past": 5610,
      "pass": 5611,
      "pock": 5612,
      "power": 5613,
      "ram": 5614,
      "sus": 5615,
      "serv": 5616,
      "vial": 5617,
      "voice": 5618,
      "wish": 5619,
      "wild": 5620,
      "Ġ-": 5621,
      "Ġing": 5622,
      "Ġtal": 5623,
      "Ġtide": 5624,
      "Ġtreas": 5625,
      "inf": 5626,
      "inations": 5627,
      "Ġsla": 5628,
      "Ġsledge": 5629,
      "Ġsilly": 5630,
      "rease": 5631,
      "ouch": 5632,
      "erred": 5633,
      "erry": 5634,
      "Ġmass": 5635,
      "Ġmourn": 5636,
      "isite": 5637,
      "Ġbought": 5638,
      "Ġbree": 5639,
      "Ġcats": 5640,
      "Ġfle": 5641,
      "Ġfish": 5642,
      "inging": 5643,
      "Ġdust": 5644,
      "Ġdignity": 5645,
      "ĠInd": 5646,
      "ascar": 5647,
      "atic": 5648,
      "Ġpig": 5649,
      "Ġpaint": 5650,
      "Ġpushed": 5651,
      "Ġpistol": 5652,
      "antern": 5653,
      "Ġnieces": 5654,
      "Ġhun": 5655,
      "Ġhyd": 5656,
      "Ġbearing": 5657,
      "Ġbehold": 5658,
      "oting": 5659,
      "Ġlens": 5660,
      "uther": 5661,
      "utation": 5662,
      "Ġelapsed": 5663,
      "still": 5664,
      "idable": 5665,
      "Ġgas": 5666,
      "Ġgentleness": 5667,
      "immedi": 5668,
      "Ġnotion": 5669,
      "urg": 5670,
      "urred": 5671,
      "uries": 5672,
      "iring": 5673,
      "rived": 5674,
      "adstreet": 5675,
      "ĠMay": 5676,
      "lier": 5677,
      "church": 5678,
      "ectual": 5679,
      "Ġstr": 5680,
      "Ġstag": 5681,
      "Ġstared": 5682,
      "ĠHouse": 5683,
      "ĠHorner": 5684,
      "ĠâĢľâĢĺ": 5685,
      "Ġconceive": 5686,
      "Ġdelive": 5687,
      "ander": 5688,
      "ĠAh": 5689,
      "ĠAGRE": 5690,
      "alling": 5691,
      "ĠSp": 5692,
      "Ġfees": 5693,
      "Ġking": 5694,
      "ĠWednesday": 5695,
      "osition": 5696,
      "uncle": 5697,
      "people": 5698,
      "ĠCo": 5699,
      "ĠCan": 5700,
      "ĠCHAPTER": 5701,
      "Ġunited": 5702,
      "Ġunwilling": 5703,
      "Ġunivers": 5704,
      "Ġunusual": 5705,
      "Ġknock": 5706,
      "Ġknees": 5707,
      "Ġworst": 5708,
      "aston": 5709,
      "ĠDenny": 5710,
      "ĠDodo": 5711,
      "ĠEx": 5712,
      "Ġagent": 5713,
      "Ġagitated": 5714,
      "umm": 5715,
      "ĠPa": 5716,
      "ĠPr": 5717,
      "deep": 5718,
      "ĠTw": 5719,
      "ĠToller": 5720,
      "Ġspect": 5721,
      "Ġspark": 5722,
      "Ġuser": 5723,
      "love": 5724,
      "others": 5725,
      "ĠIts": 5726,
      "Ġfaces": 5727,
      "ĠFOR": 5728,
      "Ġperformed": 5729,
      "Ġremorse": 5730,
      "Ġrob": 5731,
      "Ġcomput": 5732,
      "rue": 5733,
      "Ġeveryone": 5734,
      "Ġdeserve": 5735,
      "Ġdescended": 5736,
      "perate": 5737,
      "consequ": 5738,
      "Ġentity": 5739,
      "Ġchaise": 5740,
      "intro": 5741,
      "Ġpoison": 5742,
      "Ġcontent": 5743,
      "Ġcontained": 5744,
      "Ġcontents": 5745,
      "ĠRE": 5746,
      "ĠRe": 5747,
      "ĠRoss": 5748,
      "aces": 5749,
      "accept": 5750,
      "Ġprec": 5751,
      "why": 5752,
      "ensive": 5753,
      "Ġdistressed": 5754,
      "Ġdistinguish": 5755,
      "Ġclergyman": 5756,
      "Ġthrust": 5757,
      "Ġpresum": 5758,
      "bted": 5759,
      "lict": 5760,
      "short": 5761,
      "yder": 5762,
      "Ġformidable": 5763,
      "version": 5764,
      "Ġfollows": 5765,
      "Ġconfirmed": 5766,
      "apers": 5767,
      "ivative": 5768,
      "locked": 5769,
      "Ġdiscour": 5770,
      "Ġemotion": 5771,
      "Ġwaves": 5772,
      "Ġreasoning": 5773,
      "Ġbetray": 5774,
      "Ġappearing": 5775,
      "Ġillness": 5776,
      "Ġobjections": 5777,
      "Ġtrap": 5778,
      "Ġwondering": 5779,
      "Ġinterference": 5780,
      "Ġactive": 5781,
      "cribe": 5782,
      "cription": 5783,
      "Ġparish": 5784,
      "Ġequip": 5785,
      "person": 5786,
      "Ġboard": 5787,
      "Ġreality": 5788,
      "ĠLucases": 5789,
      "Ġoblig": 5790,
      "Ġcapt": 5791,
      "Ġhaste": 5792,
      "Ġhastened": 5793,
      "Ġstartled": 5794,
      "ĠTurk": 5795,
      "Ġrepeat": 5796,
      "Ġcollected": 5797,
      "Ġsolitary": 5798,
      "Ġexamine": 5799,
      "ificent": 5800,
      "ĠTHIS": 5801,
      "Ġgrieved": 5802,
      "Ġmilk": 5803,
      "Ġstepped": 5804,
      "Ġevils": 5805,
      "Ġtorture": 5806,
      "Ġgloves": 5807,
      "Ġdisgu": 5808,
      "Ġmeantime": 5809,
      "Ġquarrel": 5810,
      "trademark": 5811,
      "Ġiron": 5812,
      "Ġwretchedness": 5813,
      "Ġpayments": 5814,
      "afterwards": 5815,
      "Ġcabin": 5816,
      "works": 5817,
      "Ġbitterly": 5818,
      "Ġobtaining": 5819,
      "States": 5820,
      "Ġfatal": 5821,
      "Ġremembrance": 5822,
      "Ġbanker": 5823,
      "Ġanimal": 5824,
      "whel": 5825,
      "Ġignorance": 5826,
      "occup": 5827,
      "Ġmissed": 5828,
      "Ġmissing": 5829,
      "Ġimpatient": 5830,
      "Ġimpatiently": 5831,
      "Ġsuggested": 5832,
      "Ġintimacy": 5833,
      "Ġwaters": 5834,
      "reasonable": 5835,
      "Ġtravell": 5836,
      "Ġtreated": 5837,
      "Ġderivative": 5838,
      "Ġhigher": 5839,
      "ursed": 5840,
      "advantage": 5841,
      "Ġaccording": 5842,
      "Ġbottle": 5843,
      "Ġdaily": 5844,
      "Ġtemptation": 5845,
      "Ġcrowded": 5846,
      "Ġabhorrence": 5847,
      "Ġprisoner": 5848,
      "Ġwalls": 5849,
      "Ġfainted": 5850,
      "Ġfields": 5851,
      "ĠAlas": 5852,
      "continued": 5853,
      "Ġprotectors": 5854,
      "Ġapplicable": 5855,
      "Ġbenefit": 5856,
      "Archive": 5857,
      "Ġfoolish": 5858,
      "Ġargument": 5859,
      "Ġarguments": 5860,
      "Ġexclam": 5861,
      "Ġspecies": 5862,
      "Ġaccomplished": 5863,
      "gentleman": 5864,
      "kerchief": 5865,
      "Ġslept": 5866,
      "Ġconveyed": 5867,
      "ĠAmerica": 5868,
      "Ġbenevolent": 5869,
      "ILITY": 5870,
      "Ġowed": 5871,
      "civil": 5872,
      "Ġreplacement": 5873,
      "Ġreveal": 5874,
      "Ġswiftly": 5875,
      "ĠBohem": 5876,
      "determined": 5877,
      "donate": 5878,
      "Ġthoroughly": 5879,
      "Ġexercise": 5880,
      "Ġvoyage": 5881,
      "Ġpreceding": 5882,
      "mptom": 5883,
      "Ġtongue": 5884,
      "ĠArabian": 5885,
      "Ġceremony": 5886,
      "AMAG": 5887,
      "Ġthroat": 5888,
      "Precisely": 5889,
      "itchen": 5890,
      "MITED": 5891,
      "erryweather": 5892,
      "Ġhunger": 5893,
      "Ġequipment": 5894,
      ",)": 5895,
      "About": 5896,
      "Con": 5897,
      "None": 5898,
      "SS": 5899,
      "Thus": 5900,
      "Upon": 5901,
      "Was": 5902,
      "bro": 5903,
      "bound": 5904,
      "dro": 5905,
      "del": 5906,
      "igeon": 5907,
      "kers": 5908,
      "lim": 5909,
      "lain": 5910,
      "lour": 5911,
      "mag": 5912,
      "name": 5913,
      "put": 5914,
      "passed": 5915,
      "sy": 5916,
      "sper": 5917,
      "sleep": 5918,
      "var": 5919,
      "vage": 5920,
      "wood": 5921,
      "whis": 5922,
      "Ġ7": 5923,
      "ĠYes": 5924,
      "Ġtour": 5925,
      "Ġtired": 5926,
      "inate": 5927,
      "Ġwest": 5928,
      "Ġwise": 5929,
      "Ġsigh": 5930,
      "Ġswell": 5931,
      "Ġobe": 5932,
      "Ġocean": 5933,
      "erpent": 5934,
      "Ġmir": 5935,
      "Ġmile": 5936,
      "Ġmaj": 5937,
      "itness": 5938,
      "Ġbal": 5939,
      "Ġbill": 5940,
      "Ġbod": 5941,
      "onies": 5942,
      "Ġcher": 5943,
      "Ġcool": 5944,
      "Ġfully": 5945,
      "ords": 5946,
      "ĠIN": 5947,
      "asked": 5948,
      "ashing": 5949,
      "Ġinsp": 5950,
      "Ġinex": 5951,
      "Ġinsuff": 5952,
      "Ġpressing": 5953,
      "ange": 5954,
      "Ġhated": 5955,
      "Ġhitherto": 5956,
      "omy": 5957,
      "Ġbecomes": 5958,
      "Ġlaughter": 5959,
      "Ġyards": 5960,
      "Ġyawn": 5961,
      "Ġegg": 5962,
      "sters": 5963,
      "iony": 5964,
      "sever": 5965,
      "enth": 5966,
      "entered": 5967,
      "verty": 5968,
      "Ġgay": 5969,
      "Ġgri": 5970,
      "Ġgest": 5971,
      "Ġgate": 5972,
      "Ġgather": 5973,
      "Ġgems": 5974,
      "imag": 5975,
      "Ġresearch": 5976,
      "hers": 5977,
      "urity": 5978,
      "urope": 5979,
      "adm": 5980,
      "Ġwealth": 5981,
      "ĠMerryweather": 5982,
      "Ġisn": 5983,
      "Ġshed": 5984,
      "Ġsavage": 5985,
      "illa": 5986,
      "Ġsust": 5987,
      "Ġsuspect": 5988,
      "Ġstir": 5989,
      "Ġstout": 5990,
      "among": 5991,
      "amma": 5992,
      "Ġconceived": 5993,
      "ĠAD": 5994,
      "ĠAm": 5995,
      "Ġallusion": 5996,
      "allowed": 5997,
      "olate": 5998,
      "ĠSund": 5999,
      "ĠSoup": 6000,
      "resently": 6001,
      "raul": 6002,
      "Ġdoctor": 6003,
      "Ġshri": 6004,
      "Ġshop": 6005,
      "Ġshowing": 6006,
      "told": 6007,
      "ulation": 6008,
      "ulgar": 6009,
      "ements": 6010,
      "ĠWhile": 6011,
      "ĠLascar": 6012,
      "Ġvice": 6013,
      "Ġmanager": 6014,
      "Ġmankind": 6015,
      "istance": 6016,
      "Ġrang": 6017,
      "Ġrush": 6018,
      "ĠCount": 6019,
      "ĠChar": 6020,
      "ĠCont": 6021,
      "Ġunexpected": 6022,
      "Ġcomb": 6023,
      "Ġknee": 6024,
      "Ġanywhere": 6025,
      "ĠDoran": 6026,
      "ĠDinah": 6027,
      "Ġabomin": 6028,
      "ĠGr": 6029,
      "ĠPool": 6030,
      "inea": 6031,
      "Ġquitting": 6032,
      "oping": 6033,
      "opement": 6034,
      "Ġshared": 6035,
      "Ġshake": 6036,
      "igantic": 6037,
      "âĢĶâĢĻ": 6038,
      "âĢĶâĢĺ": 6039,
      "forward": 6040,
      "Ġsport": 6041,
      "assure": 6042,
      "ĠFrance": 6043,
      "ĠFlor": 6044,
      "Ġremo": 6045,
      "Ġcomposed": 6046,
      "rugged": 6047,
      "Ġoverwhel": 6048,
      "Ġmighty": 6049,
      "Ġworking": 6050,
      "Ġimpressed": 6051,
      "perceived": 6052,
      "conv": 6053,
      "Ġentail": 6054,
      "Ġchain": 6055,
      "avement": 6056,
      "ĠNever": 6057,
      "Ġhappens": 6058,
      "Ġpoverty": 6059,
      "Ġgroup": 6060,
      "Ġgradually": 6061,
      "Ġscattered": 6062,
      "Ġscandal": 6063,
      "Ġopium": 6064,
      "cles": 6065,
      "clothes": 6066,
      "whom": 6067,
      "whose": 6068,
      "ĠStill": 6069,
      "Ġpresume": 6070,
      "Ġ11": 6071,
      "Ġindebted": 6072,
      "Ġcounty": 6073,
      "itional": 6074,
      "Ġforms": 6075,
      "rows": 6076,
      "Ġrace": 6077,
      "Ġvisits": 6078,
      "Ġpeas": 6079,
      "untarily": 6080,
      "Ġemer": 6081,
      "Ġregular": 6082,
      "remark": 6083,
      "remember": 6084,
      "utely": 6085,
      "Ġincidents": 6086,
      "Ġguide": 6087,
      "Ġchecked": 6088,
      "Ġhumble": 6089,
      "Ġinval": 6090,
      "Ġhorrid": 6091,
      "bye": 6092,
      "Ġamongst": 6093,
      "ootman": 6094,
      "Ġcareful": 6095,
      "ancies": 6096,
      "Ġdeeper": 6097,
      "Ġresolving": 6098,
      "ĠVery": 6099,
      "pendence": 6100,
      "worth": 6101,
      "complete": 6102,
      "Ġcharacterist": 6103,
      "ecause": 6104,
      "Ġ20": 6105,
      "contro": 6106,
      "Ġtriump": 6107,
      "themselves": 6108,
      "expect": 6109,
      "express": 6110,
      "Ġsymptom": 6111,
      "pleased": 6112,
      "eading": 6113,
      "Ġsurvive": 6114,
      "Ġpretend": 6115,
      "Ġswear": 6116,
      "Ġsignal": 6117,
      "Ġswim": 6118,
      "Ġdriving": 6119,
      "faced": 6120,
      "interrupt": 6121,
      "chant": 6122,
      "ierce": 6123,
      "Ġholding": 6124,
      "prise": 6125,
      "Ġpatient": 6126,
      "Ġoccupations": 6127,
      "Ġtort": 6128,
      "Ġmoder": 6129,
      "Ġventure": 6130,
      "justice": 6131,
      "Ġwarmly": 6132,
      "Ġbarred": 6133,
      "Ġintroduction": 6134,
      "Ġdreams": 6135,
      "Ġconsequently": 6136,
      "ĠBrit": 6137,
      "ĠBradstreet": 6138,
      "ĠBriony": 6139,
      "Ġbuy": 6140,
      "Ġobtained": 6141,
      "human": 6142,
      "Ġwander": 6143,
      "Ġwandering": 6144,
      "Ġpictures": 6145,
      "Ġcommunicated": 6146,
      "Ġentreaties": 6147,
      "going": 6148,
      "intell": 6149,
      "Ġmarket": 6150,
      "Ġrelieve": 6151,
      "Ġrecommended": 6152,
      "respect": 6153,
      "Ġencouraged": 6154,
      "Ġardently": 6155,
      "Ġresults": 6156,
      "Ġwelcomed": 6157,
      "Ġtreatment": 6158,
      "Ġloudly": 6159,
      "Ġauthority": 6160,
      "Ġtempted": 6161,
      "Ġnicely": 6162,
      "ĠMoran": 6163,
      "Ġcongratulate": 6164,
      "Ġdelayed": 6165,
      "Ġprocured": 6166,
      "creatures": 6167,
      "Ġgovern": 6168,
      "Ġconjecture": 6169,
      "Ġdesirous": 6170,
      "Ġorders": 6171,
      "Ġuneasy": 6172,
      "Ġmixture": 6173,
      "Ġinconvenience": 6174,
      "Ġdisplayed": 6175,
      "reflect": 6176,
      "Ġamazement": 6177,
      "despair": 6178,
      "Ġidle": 6179,
      "Ġwhistle": 6180,
      "connected": 6181,
      "freely": 6182,
      "iveness": 6183,
      "inquir": 6184,
      "Ġsimilar": 6185,
      "Ġodd": 6186,
      "steps": 6187,
      "Ġgenius": 6188,
      "Ġforbid": 6189,
      "Ġteeth": 6190,
      "Ġsinister": 6191,
      "Ġlament": 6192,
      "Ġattentive": 6193,
      "Ġinvestigation": 6194,
      "burgh": 6195,
      "instantly": 6196,
      "Ġphysical": 6197,
      "cottage": 6198,
      "Ġfemale": 6199,
      "Ġqueer": 6200,
      "Ġsympathis": 6201,
      "Ġreceipt": 6202,
      "Ġresemblance": 6203,
      "Ġhydraul": 6204,
      "utherland": 6205,
      "ĠSunday": 6206,
      "Can": 6207,
      "Eng": 6208,
      "Fran": 6209,
      "Ha": 6210,
      "Had": 6211,
      "LL": 6212,
      "Long": 6213,
      "Lestrade": 6214,
      "Netherfield": 6215,
      "OK": 6216,
      "Off": 6217,
      "OOK": 6218,
      "Pemberley": 6219,
      "Sir": 6220,
      "URE": 6221,
      "VENT": 6222,
      "aunt": 6223,
      "bation": 6224,
      "both": 6225,
      "cal": 6226,
      "draw": 6227,
      "diff": 6228,
      "eel": 6229,
      "effect": 6230,
      "far": 6231,
      "four": 6232,
      "full": 6233,
      "fact": 6234,
      "groom": 6235,
      "garet": 6236,
      "hog": 6237,
      "ili": 6238,
      "knew": 6239,
      "kinson": 6240,
      "mad": 6241,
      "mical": 6242,
      "maid": 6243,
      "marked": 6244,
      "nings": 6245,
      "nolds": 6246,
      "oices": 6247,
      "pain": 6248,
      "rat": 6249,
      "situ": 6250,
      "tri": 6251,
      "till": 6252,
      "town": 6253,
      "tel": 6254,
      "uously": 6255,
      "vity": 6256,
      "wife": 6257,
      "warm": 6258,
      "Ġrom": 6259,
      "Ġtapp": 6260,
      "iners": 6261,
      "inions": 6262,
      "inently": 6263,
      "inche": 6264,
      "Ġwra": 6265,
      "reen": 6266,
      "really": 6267,
      "oung": 6268,
      "erland": 6269,
      "Ġma": 6270,
      "Ġmult": 6271,
      "eding": 6272,
      "ites": 6273,
      "Ġbag": 6274,
      "once": 6275,
      "Ġcock": 6276,
      "Ġfill": 6277,
      "Ġfol": 6278,
      "Ġfight": 6279,
      "Ġdried": 6280,
      "Ġdata": 6281,
      "orious": 6282,
      "ĠIndeed": 6283,
      "athered": 6284,
      "Ġink": 6285,
      "Ġpavement": 6286,
      "anx": 6287,
      "lend": 6288,
      "omed": 6289,
      "ompl": 6290,
      "otions": 6291,
      "Ġlu": 6292,
      "Ġlic": 6293,
      "Ġlap": 6294,
      "Ġlaying": 6295,
      "Ġec": 6296,
      "Ġelo": 6297,
      "Ġelig": 6298,
      "Ġeternal": 6299,
      "stru": 6300,
      "Ġgently": 6301,
      "imony": 6302,
      "Ġreference": 6303,
      "Ġthither": 6304,
      "Ġthunder": 6305,
      "Ġwhilst": 6306,
      "Ġmyster": 6307,
      "Ġug": 6308,
      "cture": 6309,
      "urther": 6310,
      "iration": 6311,
      "along": 6312,
      "alty": 6313,
      "although": 6314,
      "Ġhadn": 6315,
      "ribly": 6316,
      "Ġweighed": 6317,
      "Ġangel": 6318,
      "Ġantic": 6319,
      "Ġancient": 6320,
      "Ġisland": 6321,
      "Ġate": 6322,
      "Ġshel": 6323,
      "lif": 6324,
      "Ġsob": 6325,
      "Ġstock": 6326,
      "Ġstead": 6327,
      "Ġstones": 6328,
      "Ġsex": 6329,
      "ĠâĢľâĢĶ": 6330,
      "ambt": 6331,
      "quisite": 6332,
      "ĠAND": 6333,
      "three": 6334,
      "ĠBl": 6335,
      "Ġexha": 6336,
      "Ġexempt": 6337,
      "ĠSuddenly": 6338,
      "raced": 6339,
      "Ġfeature": 6340,
      "emember": 6341,
      "indeed": 6342,
      "ĠWinche": 6343,
      "Ġvig": 6344,
      "Ġvoices": 6345,
      "onely": 6346,
      "pelled": 6347,
      "Ġrul": 6348,
      "Ġrout": 6349,
      "Ġuniform": 6350,
      "Ġamount": 6351,
      "Ġworthy": 6352,
      "Ġwhence": 6353,
      "venient": 6354,
      "akened": 6355,
      "Ġlip": 6356,
      "ĠPre": 6357,
      "ĠPigeon": 6358,
      "Ġmoreover": 6359,
      "dec": 6360,
      "ĠTell": 6361,
      "ĠTuesday": 6362,
      "Ġthanked": 6363,
      "Ġsomebody": 6364,
      "Ġdispos": 6365,
      "open": 6366,
      "auld": 6367,
      "earing": 6368,
      "force": 6369,
      "Ġspl": 6370,
      "assment": 6371,
      "otherwise": 6372,
      "beaut": 6373,
      "ĠFive": 6374,
      "meet": 6375,
      "few": 6376,
      "Ġovercame": 6377,
      "cied": 6378,
      "Ġpartly": 6379,
      "Ġpartial": 6380,
      "Ġpartiality": 6381,
      "ĠJune": 6382,
      "Ġbranch": 6383,
      "Ġhanded": 6384,
      "return": 6385,
      "Ġrepose": 6386,
      "Ġreproach": 6387,
      "Ġcharact": 6388,
      "soever": 6389,
      "Ġcontact": 6390,
      "Ġscru": 6391,
      "lessly": 6392,
      "Ġconscience": 6393,
      "ĠBennets": 6394,
      "Ġbegged": 6395,
      "Ġpreference": 6396,
      "Ġended": 6397,
      "Ġtrick": 6398,
      "Ġhousehold": 6399,
      "Ġreserved": 6400,
      "Ġharsh": 6401,
      "Ġglimp": 6402,
      "Ġchuck": 6403,
      "Ġ10": 6404,
      "Ġoccasions": 6405,
      "Ġminds": 6406,
      "shine": 6407,
      "Ġlob": 6408,
      "Ġformal": 6409,
      "approach": 6410,
      "ictions": 6411,
      "Ġwinding": 6412,
      "vouring": 6413,
      "Ġsubs": 6414,
      "Ġnewsp": 6415,
      "Ġadvis": 6416,
      "Ġadvantages": 6417,
      "Ġdreaded": 6418,
      "Ġrestore": 6419,
      "remain": 6420,
      "ailing": 6421,
      "Ġextended": 6422,
      "Ġwanting": 6423,
      "Ġdoubted": 6424,
      "ribute": 6425,
      "Ġcrown": 6426,
      "orsham": 6427,
      "Ġcurse": 6428,
      "party": 6429,
      "Ġopenly": 6430,
      "Ġengaging": 6431,
      "Ġinvol": 6432,
      "disposition": 6433,
      "Ġtravel": 6434,
      "Ġprompt": 6435,
      "Ġabsent": 6436,
      "Ġadmit": 6437,
      "fortunately": 6438,
      "prof": 6439,
      "Ġcondition": 6440,
      "attempt": 6441,
      "Ġsentiment": 6442,
      "Ġbread": 6443,
      "Ġbreaking": 6444,
      "Ġdecide": 6445,
      "Ġexpressive": 6446,
      "Ġdestiny": 6447,
      "Ġpowerful": 6448,
      "world": 6449,
      "words": 6450,
      "rieked": 6451,
      "Ġmode": 6452,
      "Ġhonoured": 6453,
      "Ġ22": 6454,
      "Ġinsens": 6455,
      "contain": 6456,
      "Ġoccasional": 6457,
      "Ġrespects": 6458,
      "expressed": 6459,
      "Ġhumanity": 6460,
      "Ġcousins": 6461,
      "Ġgrace": 6462,
      "Ġgracious": 6463,
      "Ġcloak": 6464,
      "eynolds": 6465,
      "Ġcauses": 6466,
      "Ġangrily": 6467,
      "olutely": 6468,
      "represent": 6469,
      "Ġsituated": 6470,
      "account": 6471,
      "longer": 6472,
      "Ġstayed": 6473,
      "Ġsouth": 6474,
      "Ġclosely": 6475,
      "Ġsolved": 6476,
      "Ġsolution": 6477,
      "chance": 6478,
      "change": 6479,
      "Ġlandl": 6480,
      "Ġdangerous": 6481,
      "Ġskill": 6482,
      "hands": 6483,
      "itzerland": 6484,
      "Ġaddresses": 6485,
      "Ġcompliments": 6486,
      "Only": 6487,
      "Ġfairly": 6488,
      "Ġadmirable": 6489,
      "Ġirre": 6490,
      "asped": 6491,
      "Ġlimited": 6492,
      "Ġintroduced": 6493,
      "ĠĠĠĠĠĠĠĠĠĠĠĠĠĠĠĠĠĠĠĠĠĠĠĠĠĠĠĠĠĠĠĠĠĠĠĠĠĠĠĠĠĠĠĠĠ": 6494,
      "ĠĠĠĠĠĠĠĠĠĠĠĠĠĠĠĠĠĠĠĠĠĠĠĠĠĠĠĠĠĠĠĠĠĠĠĠĠĠĠĠĠĠĠĠĠĠ": 6495,
      "object": 6496,
      "Ġvillain": 6497,
      "Ġceiling": 6498,
      "Ġshutters": 6499,
      "ĠBeau": 6500,
      "Ġvolume": 6501,
      "ridor": 6502,
      "Ġincreasing": 6503,
      "Ġrelationship": 6504,
      "Ġwitnesses": 6505,
      "Ġinjured": 6506,
      "Ġreaching": 6507,
      "Ġenemies": 6508,
      "ĠĠĠĠĠĠĠĠĠĠĠĠĠĠĠĠĠĠĠĠĠĠĠĠĠĠĠĠ": 6509,
      "miserable": 6510,
      "Ġardent": 6511,
      "Ġblessed": 6512,
      "Ġafforded": 6513,
      "Ġshocked": 6514,
      "Ġfifteen": 6515,
      "possessed": 6516,
      "Ġexcessively": 6517,
      "interested": 6518,
      "Ġmethods": 6519,
      "Ġuncomfortable": 6520,
      "Ġsolicit": 6521,
      "Ġseparate": 6522,
      "Ġdecidedly": 6523,
      "Ġthreatened": 6524,
      "Ġconjectured": 6525,
      "Ġdeclined": 6526,
      "Ġdesirable": 6527,
      "Ġassurances": 6528,
      "Ġstruggle": 6529,
      "Ġrenewed": 6530,
      "Ġordinary": 6531,
      "believe": 6532,
      "destro": 6533,
      "Ġhesitated": 6534,
      "Ġsoothing": 6535,
      "Ġuneasiness": 6536,
      "Ġamidst": 6537,
      "Ġentertained": 6538,
      "Ġdistinctly": 6539,
      "Ġbenevolence": 6540,
      "favourable": 6541,
      "opportunity": 6542,
      "Ġdomestic": 6543,
      "Ġrepresented": 6544,
      "Ġadventure": 6545,
      "coloured": 6546,
      "observed": 6547,
      "silence": 6548,
      "Ġlucky": 6549,
      "Ġscreamed": 6550,
      "Alas": 6551,
      "surprise": 6552,
      "Ġverd": 6553,
      "Ġcigar": 6554,
      "Ġfulfil": 6555,
      "Ġsoldiers": 6556,
      "Ġproposal": 6557,
      "Ġpreparing": 6558,
      "Ġengagements": 6559,
      "Ġjumped": 6560,
      "Ġimpertinent": 6561,
      "marks": 6562,
      "neighbourhood": 6563,
      "Ġpronounced": 6564,
      "particularly": 6565,
      "Ġwickedness": 6566,
      "ĠPeterson": 6567,
      "irectly": 6568,
      "Ġhunting": 6569,
      "Ġsailors": 6570,
      "Ġstrangers": 6571,
      "Ġcomplexion": 6572,
      "large": 6573,
      "Ġtotally": 6574,
      "beginning": 6575,
      "companion": 6576,
      "Ġfreedom": 6577,
      "Ġdisdain": 6578,
      "Ġencounter": 6579,
      "Ġunlucky": 6580,
      "Ġbreeze": 6581,
      "Ġdisguise": 6582,
      "Ġinsufficient": 6583,
      "ĠADVENT": 6584,
      "Ġhydraulic": 6585,
      "Longbourn": 6586,
      "Ġeloqu": 6587,
      "Ġanticip": 6588,
      "ambton": 6589,
      "ĠWinchester": 6590,
      "Ġcharacters": 6591,
      "Ġglimpse": 6592,
      "ĠADVENTURE": 6593,
      "!)": 6594,
      "/*": 6595,
      ";âĢĿ": 6596,
      "AD": 6597,
      "Ay": 6598,
      "ACH": 6599,
      "Felix": 6600,
      "God": 6601,
      "Kitty": 6602,
      "London": 6603,
      "Most": 6604,
      "Mary": 6605,
      "Meryton": 6606,
      "Please": 6607,
      "SC": 6608,
      "ST": 6609,
      "Tell": 6610,
      "Witness": 6611,
      "bu": 6612,
      "boy": 6613,
      "bacc": 6614,
      "cast": 6615,
      "cert": 6616,
      "cold": 6617,
      "cup": 6618,
      "covered": 6619,
      "claim": 6620,
      "called": 6621,
      "dan": 6622,
      "duc": 6623,
      "dread": 6624,
      "ept": 6625,
      "ease": 6626,
      "equal": 6627,
      "fing": 6628,
      "fat": 6629,
      "fancy": 6630,
      "further": 6631,
      "gs": 6632,
      "gent": 6633,
      "gall": 6634,
      "gence": 6635,
      "hot": 6636,
      "ived": 6637,
      "lab": 6638,
      "loo": 6639,
      "making": 6640,
      "money": 6641,
      "mission": 6642,
      "nor": 6643,
      "nave": 6644,
      "number": 6645,
      "ole": 6646,
      "pes": 6647,
      "pull": 6648,
      "pron": 6649,
      "ris": 6650,
      "ral": 6651,
      "rors": 6652,
      "ser": 6653,
      "suddenly": 6654,
      "tone": 6655,
      "taken": 6656,
      "talking": 6657,
      "upp": 6658,
      "vag": 6659,
      "walk": 6660,
      "watch": 6661,
      "xed": 6662,
      "xford": 6663,
      "years": 6664,
      "yford": 6665,
      "zes": 6666,
      "Ġ/*": 6667,
      "Ġtread": 6668,
      "help": 6669,
      "Ġaug": 6670,
      "Ġsly": 6671,
      "Ġshan": 6672,
      "Ġsme": 6673,
      "Ġsquare": 6674,
      "Ġshattered": 6675,
      "Ġthee": 6676,
      "Ġoh": 6677,
      "hair": 6678,
      "ouis": 6679,
      "Ġmess": 6680,
      "Ġmamma": 6681,
      "itle": 6682,
      "Ġber": 6683,
      "enances": 6684,
      "enkinson": 6685,
      "oned": 6686,
      "Ġcla": 6687,
      "Ġclock": 6688,
      "Ġcared": 6689,
      "Ġcult": 6690,
      "Ġcamp": 6691,
      "Ġfolded": 6692,
      "Ġtore": 6693,
      "Ġtoss": 6694,
      "Ġtobacc": 6695,
      "Ġdig": 6696,
      "Ġdang": 6697,
      "Ġdirty": 6698,
      "Ġdashed": 6699,
      "orter": 6700,
      "athing": 6701,
      "Ġpin": 6702,
      "Ġpan": 6703,
      "Ġpop": 6704,
      "Ġnon": 6705,
      "Ġnurse": 6706,
      "âĢľâĢĶ": 6707,
      "Ġbend": 6708,
      "Ġbeast": 6709,
      "icher": 6710,
      "icious": 6711,
      "utter": 6712,
      "uttered": 6713,
      "stud": 6714,
      "entirely": 6715,
      "ids": 6716,
      "idity": 6717,
      "Ġgates": 6718,
      "Ġgross": 6719,
      "Ġgigantic": 6720,
      "ims": 6721,
      "Ġrecon": 6722,
      "Ġreception": 6723,
      "etition": 6724,
      "etween": 6725,
      "Ġupper": 6726,
      "also": 6727,
      "alian": 6728,
      "adding": 6729,
      "adrill": 6730,
      "Ġweap": 6731,
      "ĠMan": 6732,
      "ĠMany": 6733,
      "liked": 6734,
      "Ġstar": 6735,
      "Ġstaring": 6736,
      "Ġstraw": 6737,
      "Ġstretch": 6738,
      "ĠHill": 6739,
      "ĠHorsham": 6740,
      "ources": 6741,
      "ourselves": 6742,
      "ifully": 6743,
      "Ġconj": 6744,
      "Ġdece": 6745,
      "Ġdeli": 6746,
      "andy": 6747,
      "Ġalluded": 6748,
      "ĠBE": 6749,
      "oles": 6750,
      "olog": 6751,
      "olerable": 6752,
      "Ġexquisite": 6753,
      "ĠSh": 6754,
      "ĠSav": 6755,
      "ĠSutherland": 6756,
      "resolved": 6757,
      "Ġshrieked": 6758,
      "Ġkissed": 6759,
      "Ġkitchen": 6760,
      "ĠLace": 6761,
      "ĠLambton": 6762,
      "Ġnoise": 6763,
      "oses": 6764,
      "unless": 6765,
      "uncom": 6766,
      "Ġcouldn": 6767,
      "hant": 6768,
      "istered": 6769,
      "istcoat": 6770,
      "Ġrust": 6771,
      "ĠCON": 6772,
      "antry": 6773,
      "antastic": 6774,
      "ureau": 6775,
      "Ġuncertain": 6776,
      "orthern": 6777,
      "ĠEd": 6778,
      "ĠEm": 6779,
      "ĠEyford": 6780,
      "ends": 6781,
      "Ġaband": 6782,
      "aked": 6783,
      "lac": 6784,
      "lap": 6785,
      "laugh": 6786,
      "Ġprolong": 6787,
      "idea": 6788,
      "else": 6789,
      "ĠPU": 6790,
      "ĠPark": 6791,
      "Ġjeal": 6792,
      "inking": 6793,
      "Ġquality": 6794,
      "Ġdiss": 6795,
      "Ġdisagreeable": 6796,
      "Ġadvers": 6797,
      "Ġenab": 6798,
      "Ġensu": 6799,
      "Ġseeking": 6800,
      "forth": 6801,
      "Ġsplend": 6802,
      "beha": 6803,
      "ĠFU": 6804,
      "Ġappointment": 6805,
      "Ġperceiving": 6806,
      "everal": 6807,
      "Ġthinks": 6808,
      "rug": 6809,
      "cili": 6810,
      "Ġarch": 6811,
      "ĠJust": 6812,
      "Ġowns": 6813,
      "icking": 6814,
      "Ġimpulse": 6815,
      "Ġattracted": 6816,
      "Ġoffers": 6817,
      "each": 6818,
      "Ġhandkerchief": 6819,
      "conject": 6820,
      "retion": 6821,
      "ĠNew": 6822,
      "Ġgrant": 6823,
      "ĠRh": 6824,
      "ĠRyder": 6825,
      "ĠReading": 6826,
      "ĠReynolds": 6827,
      "Ġretire": 6828,
      "Ġretained": 6829,
      "acles": 6830,
      "Ġaccent": 6831,
      "Ġbegins": 6832,
      "Ġbeggar": 6833,
      "Ġopinions": 6834,
      "Ġprey": 6835,
      "Ġfounded": 6836,
      "Ġdistr": 6837,
      "Ġwrist": 6838,
      "Ġpapa": 6839,
      "Ġclos": 6840,
      "oyed": 6841,
      "ĠKrem": 6842,
      "super": 6843,
      "Ġmorrow": 6844,
      "Ġglim": 6845,
      "Ġchoo": 6846,
      "within": 6847,
      "Ġinstinct": 6848,
      "izing": 6849,
      "izes": 6850,
      "Ġmischief": 6851,
      "Ġrefusal": 6852,
      "Ġhopeless": 6853,
      "Ġintr": 6854,
      "appro": 6855,
      "Ġrav": 6856,
      "unted": 6857,
      "Ġrested": 6858,
      "nowledge": 6859,
      "Ġemotions": 6860,
      "Ġdetest": 6861,
      "Ġaffections": 6862,
      "days": 6863,
      "Ġolder": 6864,
      "Ġreturns": 6865,
      "Ġflattered": 6866,
      "Ġflaming": 6867,
      "Ġincrease": 6868,
      "Ġexchan": 6869,
      "Ġcheer": 6870,
      "Ġchest": 6871,
      "Ġcurt": 6872,
      "Ġconsiderably": 6873,
      "ĠYard": 6874,
      "Ġcoroner": 6875,
      "Ġcorridor": 6876,
      "actory": 6877,
      "Ġbeauties": 6878,
      "angled": 6879,
      "Ġadmitted": 6880,
      "Ġelb": 6881,
      "Ġelopement": 6882,
      "Ġactual": 6883,
      "cribed": 6884,
      "Ġdeepest": 6885,
      "Ġmetal": 6886,
      "Ġdestined": 6887,
      "Ġinfam": 6888,
      "Ġmurm": 6889,
      "engaged": 6890,
      "Ġaccounts": 6891,
      "Ġclearing": 6892,
      "Ġdetermination": 6893,
      "Ġ27": 6894,
      "ĠOnly": 6895,
      "Ġstronger": 6896,
      "Ġexpecting": 6897,
      "easy": 6898,
      "Ġdifferently": 6899,
      "Ġdisappearance": 6900,
      "considered": 6901,
      "Ġprotested": 6902,
      "Ġplayed": 6903,
      "Ġviewed": 6904,
      "Ġfalling": 6905,
      "Ġofficer": 6906,
      "Ġcares": 6907,
      "Ġneeded": 6908,
      "Ġ*/": 6909,
      "Ġhasten": 6910,
      "ĠXL": 6911,
      "accompl": 6912,
      "ĠThus": 6913,
      "Ġcolle": 6914,
      "ĠAny": 6915,
      "nature": 6916,
      "Ġeleven": 6917,
      "Ġelement": 6918,
      "knowledge": 6919,
      "handed": 6920,
      "Ġrecollect": 6921,
      "Ġrecollections": 6922,
      "Ġconclusions": 6923,
      "Ġexception": 6924,
      "Ġveil": 6925,
      "Ġcolumn": 6926,
      "Ġsuspense": 6927,
      "Ġsuspected": 6928,
      "Ġdefinite": 6929,
      "Ġimprobable": 6930,
      "whole": 6931,
      "Ġtrusted": 6932,
      "prev": 6933,
      "www": 6934,
      "Ġdenied": 6935,
      "Ġsending": 6936,
      "Ġquarters": 6937,
      "Ġirr": 6938,
      "ART": 6939,
      "Ġteach": 6940,
      "kindness": 6941,
      "oburg": 6942,
      "Ġ30": 6943,
      "Ġrepeatedly": 6944,
      "police": 6945,
      "Ġsupported": 6946,
      "priety": 6947,
      "Ġenterprise": 6948,
      "carriage": 6949,
      "Ġcommunicate": 6950,
      "racechurch": 6951,
      "Ġentreated": 6952,
      "Ġinterruption": 6953,
      "glad": 6954,
      "glass": 6955,
      "Ġmerit": 6956,
      "Ġanimated": 6957,
      "Ġexecuted": 6958,
      "ĠWhit": 6959,
      "married": 6960,
      "extra": 6961,
      "Ġpenetr": 6962,
      "seeing": 6963,
      "Ġencourage": 6964,
      "ĠMargaret": 6965,
      "ĠSwitzerland": 6966,
      "Ġfurnished": 6967,
      "Ġunfolded": 6968,
      "Ġerror": 6969,
      "Ġdeserts": 6970,
      "Ġreported": 6971,
      "Ġfastened": 6972,
      "Ġdawn": 6973,
      "Ġbelonged": 6974,
      "Ġabhorred": 6975,
      "Ġhotel": 6976,
      "Ġlodge": 6977,
      "Ġdogs": 6978,
      "Ġguarded": 6979,
      "Ġguardian": 6980,
      "Ġcongratulations": 6981,
      "Ġprocure": 6982,
      "Ġgrasped": 6983,
      "Ġmutual": 6984,
      "satisfied": 6985,
      "Ġfancied": 6986,
      "Ġstruggled": 6987,
      "speak": 6988,
      "Ġfunny": 6989,
      "Ġvexation": 6990,
      "discovered": 6991,
      "Ġaccomplish": 6992,
      "ĠAmerican": 6993,
      "Ġrestrictions": 6994,
      "Ġtrifle": 6995,
      "Ġtrifling": 6996,
      "paper": 6997,
      "recoll": 6998,
      "Ġgroan": 6999,
      "Ġvacancy": 7000,
      "Ġadditional": 7001,
      "places": 7002,
      "Ġbrave": 7003,
      "Ġhellish": 7004,
      "Ġmeasure": 7005,
      "Ġproposals": 7006,
      "Ġcruelty": 7007,
      "Ġsneez": 7008,
      "ĠStoke": 7009,
      "THE": 7010,
      "Ġexhibited": 7011,
      "Ġpropriet": 7012,
      "Ġembarrassment": 7013,
      "Ġuncommonly": 7014,
      "IVE": 7015,
      "drawn": 7016,
      "ladies": 7017,
      "Ġarranged": 7018,
      "breakfast": 7019,
      "sweet": 7020,
      "Ġlifeless": 7021,
      "Ġarrested": 7022,
      "concern": 7023,
      "circumstances": 7024,
      "aldman": 7025,
      "Ġtumult": 7026,
      "Ġmiseries": 7027,
      "Ġpolitely": 7028,
      "Ġestablished": 7029,
      "Ġsacrifice": 7030,
      "Ġessential": 7031,
      "ulsive": 7032,
      "perfectly": 7033,
      "Ġcorpse": 7034,
      "Ġavailable": 7035,
      "cousin": 7036,
      "Ġtreasure": 7037,
      "Ġdiscourse": 7038,
      "Ġtriumphant": 7039,
      "difficul": 7040,
      "Ġlux": 7041,
      "Ġeligible": 7042,
      "ducing": 7043,
      "adrille": 7044,
      "ĠLacey": 7045,
      "ĠKrempe": 7046,
      "!--": 7047,
      "50": 7048,
      "62": 7049,
      "ATI": 7050,
      "BUT": 7051,
      "Because": 7052,
      "BOOK": 7053,
      "CEN": 7054,
      "Don": 7055,
      "Hertfordshire": 7056,
      "IRE": 7057,
      "Lucas": 7058,
      "OSE": 7059,
      "Plain": 7060,
      "Tur": 7061,
      "TRA": 7062,
      "UD": 7063,
      "_;": 7064,
      "ault": 7065,
      "access": 7066,
      "bright": 7067,
      "bank": 7068,
      "ca": 7069,
      "cil": 7070,
      "cart": 7071,
      "coll": 7072,
      "copyright": 7073,
      "dressed": 7074,
      "dream": 7075,
      "ele": 7076,
      "frequ": 7077,
      "ilf": 7078,
      "iving": 7079,
      "jac": 7080,
      "joice": 7081,
      "ksome": 7082,
      "length": 7083,
      "pal": 7084,
      "purp": 7085,
      "rs": 7086,
      "rough": 7087,
      "rated": 7088,
      "sk": 7089,
      "sum": 7090,
      "sac": 7091,
      "sign": 7092,
      "saying": 7093,
      "sitting": 7094,
      "sudden": 7095,
      "tran": 7096,
      "tÃª": 7097,
      "vable": 7098,
      "vous": 7099,
      "viv": 7100,
      "ws": 7101,
      "wel": 7102,
      "word": 7103,
      "walking": 7104,
      "yl": 7105,
      "yer": 7106,
      "za": 7107,
      "Ġ#": 7108,
      "Ġ&": 7109,
      "Ġ8": 7110,
      "Ġtut": 7111,
      "Ġtones": 7112,
      "Ġtext": 7113,
      "Ġap": 7114,
      "inj": 7115,
      "Ġwing": 7116,
      "Ġwine": 7117,
      "Ġwoe": 7118,
      "real": 7119,
      "repe": 7120,
      "receive": 7121,
      "hable": 7122,
      "oult": 7123,
      "Ġmood": 7124,
      "Ġmaint": 7125,
      "Ġmock": 7126,
      "itating": 7127,
      "isance": 7128,
      "Ġbon": 7129,
      "Ġbord": 7130,
      "Ġborn": 7131,
      "Ġbrill": 7132,
      "Ġbrief": 7133,
      "Ġbased": 7134,
      "Ġbloom": 7135,
      "enjoy": 7136,
      "Ġcens": 7137,
      "Ġcover": 7138,
      "Ġcunning": 7139,
      "Ġfil": 7140,
      "Ġfret": 7141,
      "Ġfury": 7142,
      "Ġfishing": 7143,
      "Ġfetch": 7144,
      "Ġfeder": 7145,
      "Ġfierce": 7146,
      "Ġfantastic": 7147,
      "Ġtoil": 7148,
      "Ġtoils": 7149,
      "Ġdun": 7150,
      "Ġdated": 7151,
      "Ġdances": 7152,
      "ĠIND": 7153,
      "asy": 7154,
      "arat": 7155,
      "arling": 7156,
      "Ġinher": 7157,
      "Ġinjustice": 7158,
      "Ġheat": 7159,
      "Ġple": 7160,
      "Ġpure": 7161,
      "Ġpieces": 7162,
      "anilla": 7163,
      "Ġhired": 7164,
      "Ġhiding": 7165,
      "Ġbears": 7166,
      "Ġbecoming": 7167,
      "Ġbefall": 7168,
      "Ġlun": 7169,
      "Ġloung": 7170,
      "Ġlonely": 7171,
      "ici": 7172,
      "icing": 7173,
      "iciently": 7174,
      "utable": 7175,
      "stem": 7176,
      "stone": 7177,
      "state": 7178,
      "stasy": 7179,
      "seek": 7180,
      "Ġwaste": 7181,
      "verted": 7182,
      "Ġgown": 7183,
      "Ġgathered": 7184,
      "imate": 7185,
      "Ġrely": 7186,
      "Ġrever": 7187,
      "Ġreferences": 7188,
      "Ġwhither": 7189,
      "Ġwhiting": 7190,
      "Ġascertain": 7191,
      "Ġascended": 7192,
      "Ġforci": 7193,
      "Ġforty": 7194,
      "urate": 7195,
      "urbed": 7196,
      "irium": 7197,
      "alone": 7198,
      "alton": 7199,
      "abez": 7200,
      "chie": 7201,
      "Ġsofa": 7202,
      "Ġstable": 7203,
      "Ġstage": 7204,
      "Ġstuff": 7205,
      "ĠHa": 7206,
      "ĠHas": 7207,
      "Ġsees": 7208,
      "Ġsell": 7209,
      "Ġserene": 7210,
      "ourt": 7211,
      "key": 7212,
      "Ġconception": 7213,
      "Ġdel": 7214,
      "Ġdepos": 7215,
      "Ġdeference": 7216,
      "gered": 7217,
      "andam": 7218,
      "quick": 7219,
      "ĠAss": 7220,
      "ĠAlp": 7221,
      "ĠASC": 7222,
      "ĠBRE": 7223,
      "allel": 7224,
      "ĠSection": 7225,
      "ĠSerpent": 7226,
      "esting": 7227,
      "ĠWater": 7228,
      "ĠWaldman": 7229,
      "ĠLee": 7230,
      "ĠLouis": 7231,
      "Ġvulgar": 7232,
      "Ġnod": 7233,
      "Ġnois": 7234,
      "Ġorange": 7235,
      "Ġmantel": 7236,
      "unction": 7237,
      "Ġrat": 7238,
      "Ġrad": 7239,
      "Ġrash": 7240,
      "ĠCal": 7241,
      "ĠCourt": 7242,
      "antity": 7243,
      "outside": 7244,
      "Ġunnatural": 7245,
      "Ġunconscious": 7246,
      "Ġwillingly": 7247,
      "ĠDes": 7248,
      "ĠDAMAG": 7249,
      "ĠEX": 7250,
      "ĠEurope": 7251,
      "ĠEBOOK": 7252,
      "endation": 7253,
      "Ġabrupt": 7254,
      "agger": 7255,
      "Ġproject": 7256,
      "Ġlikes": 7257,
      "ĠPG": 7258,
      "ineer": 7259,
      "inkled": 7260,
      "Ġquantity": 7261,
      "ĠTO": 7262,
      "ĠTerm": 7263,
      "ĠTHA": 7264,
      "mention": 7265,
      "Ġdish": 7266,
      "Ġdism": 7267,
      "opinion": 7268,
      "Ġsharing": 7269,
      "Ġado": 7270,
      "Ġenorm": 7271,
      "Ġspace": 7272,
      "lose": 7273,
      "ĠFootman": 7274,
      "Ġexposed": 7275,
      "Ġpersever": 7276,
      "Ġrolled": 7277,
      "means": 7278,
      "fere": 7279,
      "fellow": 7280,
      "ruding": 7281,
      "cier": 7282,
      "cile": 7283,
      "Ġaris": 7284,
      "Ġparting": 7285,
      "elly": 7286,
      "ĠJenkinson": 7287,
      "Ġdownstairs": 7288,
      "Ġbrow": 7289,
      "Ġbridge": 7290,
      "ĠOak": 7291,
      "ĠOxford": 7292,
      "Ġimper": 7293,
      "Ġimpress": 7294,
      "Ġimposed": 7295,
      "Ġimprudence": 7296,
      "concl": 7297,
      "Ġrepro": 7298,
      "society": 7299,
      "Ġhappily": 7300,
      "Ġcontaining": 7301,
      "Ġcontented": 7302,
      "acket": 7303,
      "Ġconsented": 7304,
      "Ġprice": 7305,
      "Ġprint": 7306,
      "Ġtrous": 7307,
      "Ġtrade": 7308,
      "Ġtrades": 7309,
      "Ġpleasures": 7310,
      "olding": 7311,
      "ĠStark": 7312,
      "Ġdistinguished": 7313,
      "Ġdistinction": 7314,
      "Ġwrit": 7315,
      "Ġwherever": 7316,
      "fted": 7317,
      "Ġresist": 7318,
      "Ġreserve": 7319,
      "Ġresource": 7320,
      "Ġresigned": 7321,
      "Ġclay": 7322,
      "Ġclass": 7323,
      "Ġplun": 7324,
      "hamber": 7325,
      "exam": 7326,
      "ĠKnave": 7327,
      "lication": 7328,
      "license": 7329,
      "licted": 7330,
      "succeed": 7331,
      "Ġhards": 7332,
      "Ġglory": 7333,
      "ĠâĢĺ_": 7334,
      "Ġchoked": 7335,
      "Ġ12": 7336,
      "Ġ19": 7337,
      "Ġ1000": 7338,
      "Ġearn": 7339,
      "Ġearlier": 7340,
      "Ġblasted": 7341,
      "Ġrefres": 7342,
      "Ġreferred": 7343,
      "Ġrecess": 7344,
      "Ġrecall": 7345,
      "Ġrecalled": 7346,
      "imesby": 7347,
      "Ġintense": 7348,
      "Ġintentions": 7349,
      "Ġformats": 7350,
      "Ġnights": 7351,
      "philosop": 7352,
      "Ġconfident": 7353,
      "Ġsecured": 7354,
      "Ġsecurity": 7355,
      "Ġwinds": 7356,
      "ivity": 7357,
      "Ġassumed": 7358,
      "Ġsubd": 7359,
      "plain": 7360,
      "Ġgips": 7361,
      "Ġinduced": 7362,
      "formity": 7363,
      "Ġcarri": 7364,
      "Ġregistered": 7365,
      "ixed": 7366,
      "Ġcontinual": 7367,
      "impossible": 7368,
      "Ġflow": 7369,
      "Ġflowers": 7370,
      "Ġinches": 7371,
      "Ġobscure": 7372,
      "Ġbusily": 7373,
      "Ġguessed": 7374,
      "Ġguinea": 7375,
      "ributions": 7376,
      "Ġchemical": 7377,
      "Ġcurled": 7378,
      "Ġcurrent": 7379,
      "Ġ(âĢľ": 7380,
      "Ġdonate": 7381,
      "ĠUse": 7382,
      "Ġsincere": 7383,
      "Ġcorrupt": 7384,
      "disagreeable": 7385,
      "Ġpromises": 7386,
      "Ġpromoting": 7387,
      "rossed": 7388,
      "Ġturns": 7389,
      "Ġinterpret": 7390,
      "Ġinterview": 7391,
      "Ġacting": 7392,
      "Ġcharged": 7393,
      "prob": 7394,
      "Ġcondes": 7395,
      "attended": 7396,
      "ĠDoes": 7397,
      "ĠGardiners": 7398,
      "Ġslates": 7399,
      "Ġserpent": 7400,
      "ipate": 7401,
      "Ġawake": 7402,
      "Ġawful": 7403,
      "Ġhoping": 7404,
      "vived": 7405,
      "happened": 7406,
      "Ġelectronically": 7407,
      "Ġfourth": 7408,
      "Ġ26": 7409,
      "Ġinsol": 7410,
      "Ġinsist": 7411,
      "doing": 7412,
      "Ġprofound": 7413,
      "Ġmadness": 7414,
      "Ġtrivial": 7415,
      "Ġapprobation": 7416,
      "Ġmentioning": 7417,
      "expression": 7418,
      "easing": 7419,
      "Ġdespond": 7420,
      "atively": 7421,
      "Ġservices": 7422,
      "Ġhonourable": 7423,
      "Ġ***": 7424,
      "Ġoccurrences": 7425,
      "everybody": 7426,
      "azed": 7427,
      "Ġterribly": 7428,
      "Ġslightest": 7429,
      "changed": 7430,
      "proud": 7431,
      "princip": 7432,
      "answer": 7433,
      "answered": 7434,
      "ushroom": 7435,
      "anguage": 7436,
      "Ġredistribut": 7437,
      "Ġdepended": 7438,
      "Ġcomplaint": 7439,
      "Ġoccupation": 7440,
      "Ġbounds": 7441,
      "Ġtorn": 7442,
      "Ġrivers": 7443,
      "Ġcommonplace": 7444,
      "Ġtemp": 7445,
      "Ġsixteen": 7446,
      "Ġballs": 7447,
      "trouble": 7448,
      "Ġlimitation": 7449,
      "Ġmedical": 7450,
      "Ġvanish": 7451,
      "Ġsweetness": 7452,
      "pecial": 7453,
      "offic": 7454,
      "distribut": 7455,
      "distinguished": 7456,
      "Ġbuilt": 7457,
      "cheerful": 7458,
      "humoured": 7459,
      "thinking": 7460,
      "ĠBeeches": 7461,
      "asket": 7462,
      "Ġdesigned": 7463,
      "Ġextravag": 7464,
      "greatest": 7465,
      "Ġmerchant": 7466,
      "Ġanimals": 7467,
      "ridge": 7468,
      "Ġcopied": 7469,
      "Ġdrunk": 7470,
      "Ġpractical": 7471,
      "Ġstole": 7472,
      "Ġinjuries": 7473,
      "Ġperforming": 7474,
      "Ġperformance": 7475,
      "Ġpeculiarly": 7476,
      "Ġsorrowful": 7477,
      "Ġsolemnly": 7478,
      "Ġsolemnity": 7479,
      "extreme": 7480,
      "Ġsuspicious": 7481,
      "Ġencouraging": 7482,
      "ĠSwift": 7483,
      "ĠSwandam": 7484,
      "Ġvirtues": 7485,
      "Ġproperly": 7486,
      "Ġtravelling": 7487,
      "Ġsharply": 7488,
      "Ġslip": 7489,
      "Ġfalsehood": 7490,
      "Ġderive": 7491,
      "Ġcosts": 7492,
      "Ġweakness": 7493,
      "Ġdeserted": 7494,
      "Ġprincipally": 7495,
      "Ġmortal": 7496,
      "Ġpupp": 7497,
      "Ġannounce": 7498,
      "ĠEverything": 7499,
      "affected": 7500,
      "LIAB": 7501,
      "Ġmouths": 7502,
      "Ġbelongs": 7503,
      "Ġgazing": 7504,
      "delighted": 7505,
      "Ġexcessive": 7506,
      "Ġpips": 7507,
      "ĠRoyalty": 7508,
      "Ġschemes": 7509,
      "creature": 7510,
      "prominently": 7511,
      "Ġpunct": 7512,
      "robation": 7513,
      "Ġsoftened": 7514,
      "Ġsolicitude": 7515,
      "Ġseparation": 7516,
      "importance": 7517,
      "satisfaction": 7518,
      "Ġdecline": 7519,
      "Ġindulge": 7520,
      "Ġindulgence": 7521,
      "***": 7522,
      "believed": 7523,
      "Ġcheerfulness": 7524,
      "Ġvexed": 7525,
      "Ġsuggestive": 7526,
      "Before": 7527,
      "Ġspecified": 7528,
      "Ġkeenly": 7529,
      "Ġindicated": 7530,
      "Ġelegance": 7531,
      "William": 7532,
      "Ġslee": 7533,
      "Ġmixed": 7534,
      "Ġbeaten": 7535,
      "Ġconvey": 7536,
      "Ġharmless": 7537,
      "Ġcrack": 7538,
      "Ġdomain": 7539,
      "istributing": 7540,
      "ĠNOT": 7541,
      "Ġadventures": 7542,
      "colour": 7543,
      "Ġmalice": 7544,
      "Ġassembled": 7545,
      "Ġassembly": 7546,
      "ĠLIMITED": 7547,
      "ĠLICEN": 7548,
      "younger": 7549,
      "placed": 7550,
      "surprised": 7551,
      "including": 7552,
      "Ġcrop": 7553,
      "Ġcroquet": 7554,
      "Ġfulfilled": 7555,
      "escension": 7556,
      "Ġbridegroom": 7557,
      "disappointment": 7558,
      "followed": 7559,
      "Ġwidest": 7560,
      "Ġrisen": 7561,
      "Ġroyalties": 7562,
      "Ġimpertinence": 7563,
      "Defect": 7564,
      "ĠDonations": 7565,
      "Ġdisclaimer": 7566,
      "Ġpropriety": 7567,
      "Ġembarrassed": 7568,
      "Ġ90": 7569,
      "ĠCoroner": 7570,
      "Ġconfirmation": 7571,
      "ĠWARRANTY": 7572,
      "ĠWARRANTIES": 7573,
      "rippa": 7574,
      "Ġcorrespondence": 7575,
      "Ġmagnificent": 7576,
      "honour": 7577,
      "umerous": 7578,
      "Ġjewel": 7579,
      "Ġtroubled": 7580,
      "Ġinfinitely": 7581,
      "Ġsummoned": 7582,
      "Ġterrific": 7583,
      "Ġcalculated": 7584,
      "Ġtimidly": 7585,
      "Ġshudder": 7586,
      "ĠDISTRI": 7587,
      "Ġpeeped": 7588,
      "Ġhedgehog": 7589,
      "pocket": 7590,
      "Ġingen": 7591,
      "Ġflew": 7592,
      "Ġstaggered": 7593,
      "ĠAGREE": 7594,
      "astonishment": 7595,
      "ĠExcept": 7596,
      "Ġcomputer": 7597,
      "consequence": 7598,
      "Ġexclamation": 7599,
      "ĠBohemia": 7600,
      "admiration": 7601,
      "Ġshriek": 7602,
      "ĠGrimesby": 7603,
      "ĠFlora": 7604,
      "Ġemerged": 7605,
      "Frankenstein": 7606,
      "situation": 7607,
      "Ġromantic": 7608,
      "Ġfolk": 7609,
      "struck": 7610,
      "Ġugly": 7611,
      "Ġexhausted": 7612,
      "Ġrules": 7613,
      "aulding": 7614,
      "Ġchuckled": 7615,
      "Ġadvisable": 7616,
      "dreadful": 7617,
      "eptember": 7618,
      "Ġsmell": 7619,
      "Ġcultiv": 7620,
      "Ġtobacco": 7621,
      "Ġweapon": 7622,
      "Ġjealous": 7623,
      "Ġenabled": 7624,
      "ĠFULL": 7625,
      "ĠWhitney": 7626,
      "extraordinary": 7627,
      "ATION": 7628,
      "IRECT": 7629,
      "tÃªte": 7630,
      "Ġfederal": 7631,
      "ĠASCII": 7632,
      "ĠBREACH": 7633,
      "ĠDAMAGES": 7634,
      "ĠTerms": 7635,
      "ĠTHAT": 7636,
      "ĠLICENSE": 7637,
      "ĠDISTRIBUT": 7638,
      ",_": 7639,
      ",âĢĶ": 7640,
      "15": 7641,
      "42": 7642,
      "?_âĢĿ": 7643,
      "CK": 7644,
      "Coo": 7645,
      "Fitzwilliam": 7646,
      "GH": 7647,
      "Gard": 7648,
      "German": 7649,
      "Having": 7650,
      "IND": 7651,
      "IGH": 7652,
      "Last": 7653,
      "Look": 7654,
      "Nor": 7655,
      "OL": 7656,
      "Or": 7657,
      "Pr": 7658,
      "Surely": 7659,
      "Several": 7660,
      "Two": 7661,
      "Up": 7662,
      "VIII": 7663,
      "Watson": 7664,
      "aver": 7665,
      "aire": 7666,
      "aper": 7667,
      "ban": 7668,
      "cre": 7669,
      "di": 7670,
      "dr": 7671,
      "dam": 7672,
      "dressing": 7673,
      "eff": 7674,
      "erest": 7675,
      "fire": 7676,
      "fig": 7677,
      "gest": 7678,
      "gown": 7679,
      "hours": 7680,
      "lime": 7681,
      "mem": 7682,
      "mate": 7683,
      "nal": 7684,
      "pen": 7685,
      "pread": 7686,
      "prep": 7687,
      "public": 7688,
      "pardon": 7689,
      "poor": 7690,
      "rings": 7691,
      "running": 7692,
      "rimony": 7693,
      "sa": 7694,
      "sound": 7695,
      "spend": 7696,
      "school": 7697,
      "soul": 7698,
      "tar": 7699,
      "treat": 7700,
      "tled": 7701,
      "trem": 7702,
      "true": 7703,
      "uing": 7704,
      "uke": 7705,
      "uction": 7706,
      "uating": 7707,
      "walked": 7708,
      "welt": 7709,
      "yes": 7710,
      "Ġting": 7711,
      "Ġtid": 7712,
      "Ġtro": 7713,
      "Ġtie": 7714,
      "hetic": 7715,
      "Ġaut": 7716,
      "Ġaverse": 7717,
      "inci": 7718,
      "inated": 7719,
      "inno": 7720,
      "inridge": 7721,
      "Ġwides": 7722,
      "Ġwreck": 7723,
      "Ġsqu": 7724,
      "Ġsnat": 7725,
      "Ġsighed": 7726,
      "repro": 7727,
      "relling": 7728,
      "Ġoak": 7729,
      "erk": 7730,
      "itself": 7731,
      "itement": 7732,
      "itials": 7733,
      "isk": 7734,
      "isp": 7735,
      "isive": 7736,
      "isions": 7737,
      "Ġbid": 7738,
      "Ġbold": 7739,
      "Ġburned": 7740,
      "Ġbase": 7741,
      "Ġbureau": 7742,
      "Ġcow": 7743,
      "Ġcust": 7744,
      "Ġcaut": 7745,
      "Ġcraw": 7746,
      "Ġfra": 7747,
      "Ġfru": 7748,
      "Ġferv": 7749,
      "Ġfring": 7750,
      "Ġfrank": 7751,
      "Ġdou": 7752,
      "Ġdined": 7753,
      "Ġdict": 7754,
      "oratory": 7755,
      "ese": 7756,
      "esy": 7757,
      "especially": 7758,
      "asc": 7759,
      "ashes": 7760,
      "ari": 7761,
      "aration": 7762,
      "arran": 7763,
      "athed": 7764,
      "atched": 7765,
      "ators": 7766,
      "atives": 7767,
      "Ġincomplete": 7768,
      "Ġinitials": 7769,
      "Ġheels": 7770,
      "Ġpew": 7771,
      "Ġpoured": 7772,
      "Ġpuff": 7773,
      "Ġnet": 7774,
      "Ġnorthern": 7775,
      "lear": 7776,
      "least": 7777,
      "âĢĿâĢĶ": 7778,
      "Ġlantern": 7779,
      "icy": 7780,
      "utions": 7781,
      "utiful": 7782,
      "Ġelect": 7783,
      "stri": 7784,
      "sea": 7785,
      "sect": 7786,
      "Ġgar": 7787,
      "Ġgun": 7788,
      "Ġgift": 7789,
      "Ġgasped": 7790,
      "immed": 7791,
      "Ġrent": 7792,
      "Ġrejoice": 7793,
      "Ġwithdrew": 7794,
      "ursu": 7795,
      "irons": 7796,
      "rog": 7797,
      "ads": 7798,
      "Ġmeal": 7799,
      "ĠMad": 7800,
      "Ġsand": 7801,
      "ective": 7802,
      "Ġstated": 7803,
      "Ġstamp": 7804,
      "Ġseve": 7805,
      "Ġseal": 7806,
      "Ġsecl": 7807,
      "ppers": 7808,
      "ament": 7809,
      "Ġbutton": 7810,
      "Ġconverse": 7811,
      "Ġdeck": 7812,
      "Ġdeject": 7813,
      "Ġdevelop": 7814,
      "Ġdeformity": 7815,
      "Ġallowing": 7816,
      "ĠBurn": 7817,
      "lfare": 7818,
      "olen": 7819,
      "ĠSax": 7820,
      "ĠShall": 7821,
      "ilation": 7822,
      "Ġshows": 7823,
      "Ġshrill": 7824,
      "Ġkid": 7825,
      "Ġkilled": 7826,
      "ckled": 7827,
      "emplo": 7828,
      "ĠWest": 7829,
      "ĠLane": 7830,
      "ĠLiz": 7831,
      "Ġvest": 7832,
      "Ġvoid": 7833,
      "Ġorgan": 7834,
      "Ġleading": 7835,
      "uncan": 7836,
      "peculiar": 7837,
      "ateful": 7838,
      "istence": 7839,
      "Ġrow": 7840,
      "Ġrabbit": 7841,
      "Ġrushing": 7842,
      "ĠCr": 7843,
      "outhern": 7844,
      "Ġunnecessary": 7845,
      "Ġunfortunately": 7846,
      "Ġknelt": 7847,
      "Ġamused": 7848,
      "Ġalas": 7849,
      "Ġaltar": 7850,
      "ĠEv": 7851,
      "ender": 7852,
      "endous": 7853,
      "Ġabroad": 7854,
      "venue": 7855,
      "oster": 7856,
      "Ġprosper": 7857,
      "umbled": 7858,
      "ĠGracechurch": 7859,
      "ĠPe": 7860,
      "ĠPresently": 7861,
      "Ġtheirs": 7862,
      "dear": 7863,
      "depart": 7864,
      "ĠTake": 7865,
      "oper": 7866,
      "opening": 7867,
      "Ġenable": 7868,
      "âĢĶ.": 7869,
      "forget": 7870,
      "forgot": 7871,
      "assistance": 7872,
      "ĠItaly": 7873,
      "bey": 7874,
      "bell": 7875,
      "became": 7876,
      "Ġexpedition": 7877,
      "Ġpervers": 7878,
      "Ġperple": 7879,
      "Ġcompared": 7880,
      "ieu": 7881,
      "feared": 7882,
      "rub": 7883,
      "Ġtwisted": 7884,
      "ĠJan": 7885,
      "ĠJabez": 7886,
      "Ġbrick": 7887,
      "Ġdescent": 7888,
      "Ġdesires": 7889,
      "Ġdesolate": 7890,
      "ĠOr": 7891,
      "Ġimplic": 7892,
      "Ġattributed": 7893,
      "hips": 7894,
      "performed": 7895,
      "Ġentailed": 7896,
      "udes": 7897,
      "Ġfriendly": 7898,
      "intention": 7899,
      "spoke": 7900,
      "Ġhappier": 7901,
      "Ġhappiest": 7902,
      "Ġpoet": 7903,
      "Ġcontain": 7904,
      "acknowled": 7905,
      "ĠRIGH": 7906,
      "aches": 7907,
      "Ġaccum": 7908,
      "Ġscent": 7909,
      "Ġconsist": 7910,
      "Ġconsisted": 7911,
      "Ġconsumm": 7912,
      "Ġdearly": 7913,
      "Ġjustify": 7914,
      "Ġdistressing": 7915,
      "gedy": 7916,
      "ignation": 7917,
      "Ġpaced": 7918,
      "Ġcloth": 7919,
      "Ġclub": 7920,
      "heshire": 7921,
      "Ġpresents": 7922,
      "except": 7923,
      "exceed": 7924,
      "exec": 7925,
      "excellent": 7926,
      "btle": 7927,
      "Ġsupposition": 7928,
      "Ġ14": 7929,
      "Ġ15": 7930,
      "Ġearliest": 7931,
      "Ġmeanwhile": 7932,
      "raction": 7933,
      "Ġsetting": 7934,
      "Ġcountries": 7935,
      "Ġcountenances": 7936,
      "Ġcommenced": 7937,
      "Ġrefusing": 7938,
      "Ġrefuge": 7939,
      "Ġfinds": 7940,
      "shott": 7941,
      "Ġloves": 7942,
      "Ġlovers": 7943,
      "Ġloaf": 7944,
      "Ġforming": 7945,
      "versed": 7946,
      "Ġconfession": 7947,
      "Ġdiscretion": 7948,
      "Ġraising": 7949,
      "Ġsubmit": 7950,
      "Ġsublime": 7951,
      "spection": 7952,
      "Ġemp": 7953,
      "Ġchanges": 7954,
      "Ġfarm": 7955,
      "Ġregul": 7956,
      "Ġwaving": 7957,
      "Ġsideboard": 7958,
      "remained": 7959,
      "remains": 7960,
      "remarked": 7961,
      "Ġextinguished": 7962,
      "impat": 7963,
      "impro": 7964,
      "Ġflat": 7965,
      "Ġdoubts": 7966,
      "Ġcritical": 7967,
      "Ġcheek": 7968,
      "Ġcursed": 7969,
      "willingly": 7970,
      "Ġlighted": 7971,
      "acted": 7972,
      "actly": 7973,
      "afraid": 7974,
      "Ġtraced": 7975,
      "ogue": 7976,
      "Ġhelpless": 7977,
      "ĠĠĠĠĠĠĠĠĠĠĠĠĠĠĠĠĠĠĠĠĠĠĠĠĠĠĠĠĠĠĠĠĠ": 7978,
      "Ġwonderfully": 7979,
      "Ġintercourse": 7980,
      "Ġinterfere": 7981,
      "Ġactivity": 7982,
      "bitter": 7983,
      "whatever": 7984,
      "Ġimaginary": 7985,
      "anche": 7986,
      "fortune": 7987,
      "prop": 7988,
      "Ġconditions": 7989,
      "Ġcondescension": 7990,
      "Ġparlour": 7991,
      "posure": 7992,
      "Ġprovision": 7993,
      "Ġlawyer": 7994,
      "Ġinfer": 7995,
      "Ġoppressed": 7996,
      "Ġopposed": 7997,
      "worn": 7998,
      "compassion": 7999
    },
    "merges": [
      [
        "Ġ",
        "t"
      ],
      [
        "h",
        "e"
      ],
      [
        "č",
        "Ċ"
      ],
      [
        "Ġ",
        "a"
      ],
      [
        "i",
        "n"
      ],
      [
        "Ġ",
        "w"
      ],
      [
        "Ġ",
        "s"
      ],
      [
        "r",
        "e"
      ],
      [
        "Ġt",
        "he"
      ],
      [
        "Ġ",
        "o"
      ],
      [
        "h",
        "a"
      ],
      [
        "o",
        "u"
      ],
      [
        "n",
        "d"
      ],
      [
        "â",
        "Ģ"
      ],
      [
        "e",
        "r"
      ],
      [
        "Ġ",
        "m"
      ],
      [
        "e",
        "d"
      ],
      [
        "i",
        "t"
      ],
      [
        "i",
        "s"
      ],
      [
        "Ġ",
        "b"
      ],
      [
        "e",
        "n"
      ],
      [
        "o",
        "n"
      ],
      [
        "Ġ",
        "c"
      ],
      [
        "Ġ",
        "f"
      ],
      [
        "Ġt",
        "o"
      ],
      [
        "Ġo",
        "f"
      ],
      [
        "in",
        "g"
      ],
      [
        "Ġa",
        "nd"
      ],
      [
        "Ġ",
        "d"
      ],
      [
        "o",
        "r"
      ],
      [
        "e",
        "s"
      ],
      [
        "Ġ",
        "I"
      ],
      [
        "a",
        "s"
      ],
      [
        "l",
        "l"
      ],
      [
        "a",
        "r"
      ],
      [
        "a",
        "t"
      ],
      [
        "Ġ",
        "in"
      ],
      [
        "Ġ",
        "Ġ"
      ],
      [
        "Ġ",
        "he"
      ],
      [
        "Ġ",
        "p"
      ],
      [
        "a",
        "n"
      ],
      [
        "Ġ",
        "n"
      ],
      [
        "Ġ",
        "ha"
      ],
      [
        "Ġ",
        "h"
      ],
      [
        "l",
        "e"
      ],
      [
        "âĢ",
        "ľ"
      ],
      [
        "o",
        "m"
      ],
      [
        "ha",
        "t"
      ],
      [
        "Ġb",
        "e"
      ],
      [
        "âĢ",
        "Ŀ"
      ],
      [
        "o",
        "t"
      ],
      [
        "Ġ",
        "l"
      ],
      [
        "i",
        "c"
      ],
      [
        "Ġ",
        "y"
      ],
      [
        "u",
        "t"
      ],
      [
        "v",
        "e"
      ],
      [
        "Ġ",
        "e"
      ],
      [
        "l",
        "y"
      ],
      [
        "s",
        "t"
      ],
      [
        "Ġy",
        "ou"
      ],
      [
        "o",
        "w"
      ],
      [
        "i",
        "on"
      ],
      [
        "s",
        "e"
      ],
      [
        "Ġw",
        "as"
      ],
      [
        "en",
        "t"
      ],
      [
        "l",
        "d"
      ],
      [
        "i",
        "d"
      ],
      [
        "Ġt",
        "hat"
      ],
      [
        "v",
        "er"
      ],
      [
        "Ġ",
        "g"
      ],
      [
        "i",
        "m"
      ],
      [
        "Ġ",
        "re"
      ],
      [
        "g",
        "h"
      ],
      [
        "c",
        "e"
      ],
      [
        "e",
        "t"
      ],
      [
        "Ġ",
        "it"
      ],
      [
        "Ġt",
        "h"
      ],
      [
        "it",
        "h"
      ],
      [
        "Ġw",
        "h"
      ],
      [
        "Ġm",
        "y"
      ],
      [
        "Ġhe",
        "r"
      ],
      [
        "Ġ",
        "u"
      ],
      [
        "c",
        "t"
      ],
      [
        "Ġa",
        "s"
      ],
      [
        "ĠĠ",
        "ĠĠ"
      ],
      [
        "Ġo",
        "n"
      ],
      [
        "a",
        "y"
      ],
      [
        "Ġw",
        "ith"
      ],
      [
        "Ġn",
        "ot"
      ],
      [
        "he",
        "r"
      ],
      [
        "Ġf",
        "or"
      ],
      [
        "u",
        "r"
      ],
      [
        "i",
        "r"
      ],
      [
        "ou",
        "ld"
      ],
      [
        "a",
        "l"
      ],
      [
        "gh",
        "t"
      ],
      [
        "r",
        "o"
      ],
      [
        "Ġh",
        "is"
      ],
      [
        "Ġha",
        "d"
      ],
      [
        "âĢ",
        "Ļ"
      ],
      [
        "r",
        "i"
      ],
      [
        "a",
        "d"
      ],
      [
        "Ġw",
        "e"
      ],
      [
        "Ġa",
        "n"
      ],
      [
        ".",
        "âĢĿ"
      ],
      [
        "Ġm",
        "e"
      ],
      [
        "Ġ",
        "M"
      ],
      [
        "Ġ",
        "is"
      ],
      [
        "t",
        "er"
      ],
      [
        "Ġa",
        "t"
      ],
      [
        "a",
        "b"
      ],
      [
        "Ġs",
        "he"
      ],
      [
        "l",
        "i"
      ],
      [
        "c",
        "h"
      ],
      [
        "Ġs",
        "a"
      ],
      [
        "Ġha",
        "ve"
      ],
      [
        "a",
        "in"
      ],
      [
        "ic",
        "h"
      ],
      [
        "i",
        "ll"
      ],
      [
        "es",
        "s"
      ],
      [
        "re",
        "d"
      ],
      [
        "Ġs",
        "o"
      ],
      [
        "T",
        "he"
      ],
      [
        "o",
        "o"
      ],
      [
        "e",
        "ct"
      ],
      [
        "Ġs",
        "u"
      ],
      [
        "Ġs",
        "t"
      ],
      [
        "Ġ",
        "H"
      ],
      [
        "Ġs",
        "e"
      ],
      [
        "at",
        "ion"
      ],
      [
        "Ġ",
        "âĢľ"
      ],
      [
        "Ġwh",
        "ich"
      ],
      [
        "p",
        "p"
      ],
      [
        "ou",
        "r"
      ],
      [
        "a",
        "m"
      ],
      [
        "Ġb",
        "ut"
      ],
      [
        "i",
        "f"
      ],
      [
        "ver",
        "y"
      ],
      [
        "r",
        "om"
      ],
      [
        "k",
        "e"
      ],
      [
        "o",
        "re"
      ],
      [
        "Ġc",
        "on"
      ],
      [
        "Ġd",
        "e"
      ],
      [
        "g",
        "e"
      ],
      [
        "Ġh",
        "im"
      ],
      [
        "a",
        "nd"
      ],
      [
        "Ġb",
        "y"
      ],
      [
        "q",
        "u"
      ],
      [
        "Ġ",
        "A"
      ],
      [
        "Ġa",
        "ll"
      ],
      [
        "t",
        "h"
      ],
      [
        "Ġ",
        "B"
      ],
      [
        "u",
        "st"
      ],
      [
        "om",
        "e"
      ],
      [
        "a",
        "ll"
      ],
      [
        "Ġsa",
        "id"
      ],
      [
        "l",
        "f"
      ],
      [
        "o",
        "l"
      ],
      [
        ",",
        "âĢĿ"
      ],
      [
        "Ġe",
        "x"
      ],
      [
        "Ġ",
        "S"
      ],
      [
        "i",
        "l"
      ],
      [
        "re",
        "s"
      ],
      [
        "Ġf",
        "rom"
      ],
      [
        "t",
        "he"
      ],
      [
        "Ġth",
        "is"
      ],
      [
        "ĠM",
        "r"
      ],
      [
        "r",
        "a"
      ],
      [
        "Ġd",
        "o"
      ],
      [
        "es",
        "t"
      ],
      [
        "Ġf",
        "e"
      ],
      [
        "Ġw",
        "he"
      ],
      [
        "Ġn",
        "e"
      ],
      [
        "Ġu",
        "p"
      ],
      [
        "ar",
        "d"
      ],
      [
        "Ġwe",
        "re"
      ],
      [
        "Ġs",
        "h"
      ],
      [
        "Ġ",
        "k"
      ],
      [
        "t",
        "o"
      ],
      [
        "c",
        "k"
      ],
      [
        "u",
        "l"
      ],
      [
        "ĠĠĠĠ",
        "ĠĠĠĠ"
      ],
      [
        "e",
        "m"
      ],
      [
        "i",
        "ght"
      ],
      [
        "Ġyou",
        "r"
      ],
      [
        "in",
        "d"
      ],
      [
        "Ġ",
        "W"
      ],
      [
        "Ġ",
        "The"
      ],
      [
        "se",
        "lf"
      ],
      [
        "Ġ",
        "L"
      ],
      [
        "Ġ",
        "v"
      ],
      [
        "Ġn",
        "o"
      ],
      [
        "Ġbe",
        "en"
      ],
      [
        "Ġo",
        "r"
      ],
      [
        "Ġ",
        "le"
      ],
      [
        "Ġm",
        "an"
      ],
      [
        "u",
        "s"
      ],
      [
        "o",
        "s"
      ],
      [
        "on",
        "e"
      ],
      [
        "u",
        "n"
      ],
      [
        "ic",
        "e"
      ],
      [
        "Ġwh",
        "o"
      ],
      [
        "p",
        "e"
      ],
      [
        "it",
        "t"
      ],
      [
        "at",
        "e"
      ],
      [
        "ab",
        "le"
      ],
      [
        "ou",
        "s"
      ],
      [
        "Ġc",
        "ould"
      ],
      [
        "Ġ",
        "very"
      ],
      [
        "ou",
        "nd"
      ],
      [
        "ha",
        "n"
      ],
      [
        "is",
        "t"
      ],
      [
        "Ġ",
        "r"
      ],
      [
        "Ġw",
        "ould"
      ],
      [
        "Ġ",
        "C"
      ],
      [
        "an",
        "t"
      ],
      [
        "et",
        "h"
      ],
      [
        "ar",
        "t"
      ],
      [
        "i",
        "ve"
      ],
      [
        "?",
        "âĢĿ"
      ],
      [
        "u",
        "re"
      ],
      [
        "ou",
        "t"
      ],
      [
        "Ġu",
        "n"
      ],
      [
        "Ġa",
        "re"
      ],
      [
        "Ġc",
        "om"
      ],
      [
        "Ġk",
        "n"
      ],
      [
        "Ġa",
        "m"
      ],
      [
        "Ġw",
        "or"
      ],
      [
        "er",
        "s"
      ],
      [
        "Ġa",
        "l"
      ],
      [
        "on",
        "g"
      ],
      [
        "v",
        "ed"
      ],
      [
        "Ġan",
        "y"
      ],
      [
        "Ġwhe",
        "n"
      ],
      [
        "Ġw",
        "ill"
      ],
      [
        "or",
        "t"
      ],
      [
        "as",
        "t"
      ],
      [
        "Ġ",
        "D"
      ],
      [
        "Ġthe",
        "y"
      ],
      [
        "Ġw",
        "hat"
      ],
      [
        "Ġon",
        "e"
      ],
      [
        "Ġ",
        "E"
      ],
      [
        "ou",
        "gh"
      ],
      [
        "e",
        "nd"
      ],
      [
        "Ġa",
        "g"
      ],
      [
        "Ġthe",
        "re"
      ],
      [
        "oo",
        "k"
      ],
      [
        "Ġa",
        "b"
      ],
      [
        "a",
        "g"
      ],
      [
        "oo",
        "d"
      ],
      [
        "t",
        "her"
      ],
      [
        "re",
        "at"
      ],
      [
        "v",
        "en"
      ],
      [
        "an",
        "ce"
      ],
      [
        "a",
        "k"
      ],
      [
        "Ġthe",
        "m"
      ],
      [
        "o",
        "st"
      ],
      [
        "it",
        "y"
      ],
      [
        "at",
        "her"
      ],
      [
        "en",
        "ce"
      ],
      [
        "l",
        "a"
      ],
      [
        "Ġp",
        "ro"
      ],
      [
        "ow",
        "n"
      ],
      [
        "u",
        "m"
      ],
      [
        "li",
        "z"
      ],
      [
        "Ġc",
        "an"
      ],
      [
        "Ġa",
        "f"
      ],
      [
        "Ġ",
        "G"
      ],
      [
        "c",
        "c"
      ],
      [
        "f",
        "ore"
      ],
      [
        "he",
        "d"
      ],
      [
        "ab",
        "eth"
      ],
      [
        "liz",
        "abeth"
      ],
      [
        "id",
        "e"
      ],
      [
        "e",
        "l"
      ],
      [
        "b",
        "er"
      ],
      [
        "Ġl",
        "i"
      ],
      [
        "r",
        "y"
      ],
      [
        "j",
        "ect"
      ],
      [
        "Ġ",
        "P"
      ],
      [
        "Ġ",
        "j"
      ],
      [
        "n",
        "t"
      ],
      [
        "in",
        "e"
      ],
      [
        "Ġ",
        "_"
      ],
      [
        "in",
        "k"
      ],
      [
        "Ġm",
        "ore"
      ],
      [
        "Ġ",
        "im"
      ],
      [
        "Ġ",
        "qu"
      ],
      [
        "Ġthe",
        "ir"
      ],
      [
        "p",
        "t"
      ],
      [
        "ur",
        "n"
      ],
      [
        "Y",
        "ou"
      ],
      [
        "am",
        "e"
      ],
      [
        "Ġ",
        "if"
      ],
      [
        "d",
        "e"
      ],
      [
        "o",
        "nd"
      ],
      [
        "Ġo",
        "ut"
      ],
      [
        "Ġ",
        "T"
      ],
      [
        "itt",
        "le"
      ],
      [
        "w",
        "e"
      ],
      [
        "res",
        "s"
      ],
      [
        "a",
        "ge"
      ],
      [
        "m",
        "ent"
      ],
      [
        "u",
        "ch"
      ],
      [
        "Ġt",
        "han"
      ],
      [
        "Ġs",
        "ome"
      ],
      [
        "Ġkn",
        "ow"
      ],
      [
        "t",
        "e"
      ],
      [
        "Ġd",
        "is"
      ],
      [
        "Ġup",
        "on"
      ],
      [
        "c",
        "y"
      ],
      [
        "o",
        "p"
      ],
      [
        "Ġs",
        "ha"
      ],
      [
        "a",
        "u"
      ],
      [
        "w",
        "n"
      ],
      [
        "it",
        "e"
      ],
      [
        "Ġsh",
        "ould"
      ],
      [
        "Ġa",
        "d"
      ],
      [
        "Ġo",
        "ther"
      ],
      [
        "a",
        "ke"
      ],
      [
        "ĠH",
        "e"
      ],
      [
        "is",
        "h"
      ],
      [
        "im",
        "e"
      ],
      [
        "e",
        "ar"
      ],
      [
        "ou",
        "ght"
      ],
      [
        "w",
        "ay"
      ],
      [
        "Ġ",
        "en"
      ],
      [
        "Ġh",
        "ow"
      ],
      [
        "Ġse",
        "e"
      ],
      [
        "o",
        "f"
      ],
      [
        "i",
        "re"
      ],
      [
        "i",
        "g"
      ],
      [
        "o",
        "ll"
      ],
      [
        "âĢ",
        "Ķ"
      ],
      [
        "f",
        "or"
      ],
      [
        "a",
        "re"
      ],
      [
        "Ġl",
        "ittle"
      ],
      [
        "b",
        "le"
      ],
      [
        "k",
        "ed"
      ],
      [
        "Ġm",
        "ust"
      ],
      [
        "Ġs",
        "p"
      ],
      [
        "Ġin",
        "to"
      ],
      [
        "Ġsu",
        "ch"
      ],
      [
        "Ġha",
        "s"
      ],
      [
        "is",
        "s"
      ],
      [
        "Ġu",
        "s"
      ],
      [
        "Ġd",
        "id"
      ],
      [
        "as",
        "s"
      ],
      [
        "l",
        "o"
      ],
      [
        "ot",
        "her"
      ],
      [
        "ĠI",
        "t"
      ],
      [
        "all",
        "y"
      ],
      [
        "âĢ",
        "ĺ"
      ],
      [
        "i",
        "es"
      ],
      [
        "Ġthe",
        "n"
      ],
      [
        "Ġn",
        "ow"
      ],
      [
        "b",
        "e"
      ],
      [
        "er",
        "t"
      ],
      [
        "Ġf",
        "a"
      ],
      [
        "ĠE",
        "lizabeth"
      ],
      [
        "Ġ",
        "F"
      ],
      [
        "Ġex",
        "p"
      ],
      [
        "e",
        "p"
      ],
      [
        "Ġa",
        "pp"
      ],
      [
        "-",
        "-"
      ],
      [
        "ad",
        "y"
      ],
      [
        "!",
        "âĢĿ"
      ],
      [
        "Ġm",
        "ay"
      ],
      [
        "Ġbe",
        "fore"
      ],
      [
        "Ġp",
        "er"
      ],
      [
        "n",
        "ess"
      ],
      [
        "Ġm",
        "uch"
      ],
      [
        "ing",
        "s"
      ],
      [
        "Ġre",
        "m"
      ],
      [
        "Ġ",
        "ro"
      ],
      [
        "Ġcom",
        "p"
      ],
      [
        "i",
        "e"
      ],
      [
        "e",
        "ver"
      ],
      [
        "Ġon",
        "ly"
      ],
      [
        "v",
        "ing"
      ],
      [
        "ion",
        "s"
      ],
      [
        "Ġag",
        "ain"
      ],
      [
        "i",
        "ly"
      ],
      [
        "o",
        "se"
      ],
      [
        "n",
        "g"
      ],
      [
        "m",
        "e"
      ],
      [
        "Ġth",
        "ink"
      ],
      [
        "l",
        "ed"
      ],
      [
        "f",
        "e"
      ],
      [
        "Ġl",
        "ook"
      ],
      [
        "Ġt",
        "ime"
      ],
      [
        "re",
        "e"
      ],
      [
        "ou",
        "nt"
      ],
      [
        "m",
        "es"
      ],
      [
        "Ġo",
        "b"
      ],
      [
        "r",
        "u"
      ],
      [
        "ĠĠĠĠĠĠĠĠ",
        "ĠĠĠĠĠĠĠĠ"
      ],
      [
        "o",
        "ve"
      ],
      [
        "Ġo",
        "ver"
      ],
      [
        "c",
        "i"
      ],
      [
        "o",
        "d"
      ],
      [
        "ri",
        "ed"
      ],
      [
        "ol",
        "mes"
      ],
      [
        "at",
        "ed"
      ],
      [
        "Ġa",
        "r"
      ],
      [
        "h",
        "is"
      ],
      [
        "ri",
        "ght"
      ],
      [
        "ar",
        "y"
      ],
      [
        "Ġe",
        "very"
      ],
      [
        "ad",
        "e"
      ],
      [
        "Ġm",
        "ight"
      ],
      [
        "Ġto",
        "o"
      ],
      [
        "Ġd",
        "ay"
      ],
      [
        "ĠB",
        "ut"
      ],
      [
        "Ġp",
        "art"
      ],
      [
        "e",
        "ll"
      ],
      [
        "Ġg",
        "o"
      ],
      [
        "Ġt",
        "w"
      ],
      [
        "Ġ",
        "J"
      ],
      [
        "f",
        "ect"
      ],
      [
        "t",
        "hat"
      ],
      [
        "c",
        "ed"
      ],
      [
        "h",
        "ing"
      ],
      [
        "Ġd",
        "own"
      ],
      [
        "ar",
        "cy"
      ],
      [
        "Ġsha",
        "ll"
      ],
      [
        "Ġo",
        "wn"
      ],
      [
        "ri",
        "end"
      ],
      [
        "n",
        "ot"
      ],
      [
        "ir",
        "st"
      ],
      [
        "is",
        "e"
      ],
      [
        "Ġb",
        "r"
      ],
      [
        "ou",
        "se"
      ],
      [
        "Ġab",
        "out"
      ],
      [
        "l",
        "ice"
      ],
      [
        "ic",
        "k"
      ],
      [
        "Ġo",
        "ur"
      ],
      [
        "ĠH",
        "olmes"
      ],
      [
        "Ġd",
        "es"
      ],
      [
        "Ġwor",
        "k"
      ],
      [
        "Ġaf",
        "ter"
      ],
      [
        "Ġ",
        "O"
      ],
      [
        "Ġim",
        "p"
      ],
      [
        "os",
        "s"
      ],
      [
        "f",
        "ul"
      ],
      [
        "t",
        "ter"
      ],
      [
        "w",
        "ard"
      ],
      [
        "le",
        "y"
      ],
      [
        "Ġat",
        "t"
      ],
      [
        "n",
        "e"
      ],
      [
        "Ġs",
        "ay"
      ],
      [
        "n",
        "ing"
      ],
      [
        "Ġli",
        "ke"
      ],
      [
        "ĠD",
        "arcy"
      ],
      [
        "Ġof",
        "f"
      ],
      [
        "is",
        "ter"
      ],
      [
        "Ġne",
        "ver"
      ],
      [
        "r",
        "an"
      ],
      [
        "Ġth",
        "ought"
      ],
      [
        "Ġg",
        "reat"
      ],
      [
        "ĠS",
        "he"
      ],
      [
        "e",
        "a"
      ],
      [
        "ar",
        "k"
      ],
      [
        "le",
        "as"
      ],
      [
        "ut",
        "en"
      ],
      [
        "i",
        "ous"
      ],
      [
        "h",
        "i"
      ],
      [
        "p",
        "s"
      ],
      [
        "ber",
        "g"
      ],
      [
        "uten",
        "berg"
      ],
      [
        "p",
        "er"
      ],
      [
        "en",
        "n"
      ],
      [
        "Ġha",
        "nd"
      ],
      [
        "c",
        "on"
      ],
      [
        "re",
        "t"
      ],
      [
        "Ġ",
        "ent"
      ],
      [
        "Ġre",
        "p"
      ],
      [
        "u",
        "d"
      ],
      [
        "Ġm",
        "ost"
      ],
      [
        "Ġf",
        "riend"
      ],
      [
        "Ġc",
        "ha"
      ],
      [
        "in",
        "t"
      ],
      [
        "a",
        "ve"
      ],
      [
        "u",
        "e"
      ],
      [
        "Ġf",
        "irst"
      ],
      [
        "Ġit",
        "s"
      ],
      [
        "Ġ",
        "N"
      ],
      [
        "s",
        "o"
      ],
      [
        "s",
        "p"
      ],
      [
        "Ġha",
        "pp"
      ],
      [
        "nd",
        "er"
      ],
      [
        "Ġe",
        "ven"
      ],
      [
        "ĠM",
        "iss"
      ],
      [
        "en",
        "ed"
      ],
      [
        "Ġl",
        "ong"
      ],
      [
        "Ġp",
        "o"
      ],
      [
        "Ġcon",
        "t"
      ],
      [
        "Ġwe",
        "ll"
      ],
      [
        "an",
        "e"
      ],
      [
        "if",
        "e"
      ],
      [
        "enn",
        "et"
      ],
      [
        "Ġ",
        "You"
      ],
      [
        "he",
        "n"
      ],
      [
        "a",
        "ck"
      ],
      [
        "Ġg",
        "ood"
      ],
      [
        "b",
        "ut"
      ],
      [
        "ĠA",
        "lice"
      ],
      [
        "I",
        "t"
      ],
      [
        "ro",
        "ject"
      ],
      [
        "Ġg",
        "r"
      ],
      [
        "Ġ",
        "R"
      ],
      [
        "ĠMr",
        "s"
      ],
      [
        "Ġre",
        "t"
      ],
      [
        "Ġs",
        "ister"
      ],
      [
        "Ġp",
        "ass"
      ],
      [
        "a",
        "c"
      ],
      [
        "Ġa",
        "cc"
      ],
      [
        "Ġso",
        "on"
      ],
      [
        "i",
        "ble"
      ],
      [
        "Ġs",
        "m"
      ],
      [
        "Ġfe",
        "el"
      ],
      [
        "a",
        "ch"
      ],
      [
        "at",
        "ter"
      ],
      [
        "v",
        "es"
      ],
      [
        "ation",
        "s"
      ],
      [
        "Ġs",
        "c"
      ],
      [
        "l",
        "ess"
      ],
      [
        "Ġtw",
        "o"
      ],
      [
        "Ġe",
        "y"
      ],
      [
        "li",
        "e"
      ],
      [
        "u",
        "ll"
      ],
      [
        "Ġf",
        "ather"
      ],
      [
        "ing",
        "ley"
      ],
      [
        "Ġcon",
        "s"
      ],
      [
        "ĠB",
        "ennet"
      ],
      [
        "Ġm",
        "ade"
      ],
      [
        "Ġbe",
        "g"
      ],
      [
        "in",
        "ess"
      ],
      [
        "ĠĠ",
        "Ġ"
      ],
      [
        "m",
        "an"
      ],
      [
        "Ġo",
        "p"
      ],
      [
        "Ġbe",
        "ing"
      ],
      [
        "Ġc",
        "ame"
      ],
      [
        "i",
        "le"
      ],
      [
        "i",
        "ed"
      ],
      [
        "Ġher",
        "self"
      ],
      [
        "Ġde",
        "ar"
      ],
      [
        "ert",
        "ain"
      ],
      [
        "Ġro",
        "om"
      ],
      [
        "c",
        "om"
      ],
      [
        "c",
        "l"
      ],
      [
        "m",
        "ed"
      ],
      [
        "Ġw",
        "ay"
      ],
      [
        "Ġm",
        "ar"
      ],
      [
        "Ġwith",
        "out"
      ],
      [
        "Ġp",
        "r"
      ],
      [
        "Ġa",
        "way"
      ],
      [
        "Ġm",
        "ake"
      ],
      [
        "Ġse",
        "em"
      ],
      [
        "Ġp",
        "re"
      ],
      [
        "Ġe",
        "nd"
      ],
      [
        "Ġt",
        "r"
      ],
      [
        "ĠP",
        "roject"
      ],
      [
        "Ġp",
        "leas"
      ],
      [
        "o",
        "ld"
      ],
      [
        "Ġe",
        "ver"
      ],
      [
        "Ġf",
        "ound"
      ],
      [
        "al",
        "k"
      ],
      [
        "Ġj",
        "ust"
      ],
      [
        "Ġs",
        "pe"
      ],
      [
        "n",
        "er"
      ],
      [
        "Ġmy",
        "self"
      ],
      [
        "in",
        "s"
      ],
      [
        "ĠG",
        "utenberg"
      ],
      [
        "Ġyou",
        "ng"
      ],
      [
        "th",
        "ing"
      ],
      [
        "Ġsa",
        "w"
      ],
      [
        "Ġu",
        "nder"
      ],
      [
        "w",
[...]
